{
  "version": "1.0",
  "truncation": null,
  "padding": null,
  "added_tokens": [
    {
      "id": 0,
      "content": "<|pad|>",
      "single_word": false,
      "lstrip": false,
      "rstrip": false,
      "normalized": false,
      "special": true
    },
    {
      "id": 1,
      "content": "<|endoftext|>",
      "single_word": false,
      "lstrip": false,
      "rstrip": false,
      "normalized": false,
      "special": true
    },
    {
      "id": 2,
      "content": "<|system|>",
      "single_word": false,
      "lstrip": false,
      "rstrip": false,
      "normalized": false,
      "special": true
    },
    {
      "id": 3,
      "content": "<|user|>",
      "single_word": false,
      "lstrip": false,
      "rstrip": false,
      "normalized": false,
      "special": true
    },
    {
      "id": 4,
      "content": "<|assistant|>",
      "single_word": false,
      "lstrip": false,
      "rstrip": false,
      "normalized": false,
      "special": true
    },
    {
      "id": 5,
      "content": "<|tool|>",
      "single_word": false,
      "lstrip": false,
      "rstrip": false,
      "normalized": false,
      "special": true
    },
    {
      "id": 6,
      "content": "<|end|>",
      "single_word": false,
      "lstrip": false,
      "rstrip": false,
      "normalized": false,
      "special": true
    },
    {
      "id": 7,
      "content": "<|fim_prefix|>",
      "single_word": false,
      "lstrip": false,
      "rstrip": false,
      "normalized": false,
      "special": true
    },
    {
      "id": 8,
      "content": "<|fim_suffix|>",
      "single_word": false,
      "lstrip": false,
      "rstrip": false,
      "normalized": false,
      "special": true
    },
    {
      "id": 9,
      "content": "<|fim_middle|>",
      "single_word": false,
      "lstrip": false,
      "rstrip": false,
      "normalized": false,
      "special": true
    },
    {
      "id": 10,
      "content": "<|thinking|>",
      "single_word": false,
      "lstrip": false,
      "rstrip": false,
      "normalized": false,
      "special": true
    },
    {
      "id": 11,
      "content": "<|direct|>",
      "single_word": false,
      "lstrip": false,
      "rstrip": false,
      "normalized": false,
      "special": true
    },
    {
      "id": 12,
      "content": "<think>",
      "single_word": false,
      "lstrip": false,
      "rstrip": false,
      "normalized": false,
      "special": true
    },
    {
      "id": 13,
      "content": "</think>",
      "single_word": false,
      "lstrip": false,
      "rstrip": false,
      "normalized": false,
      "special": true
    },
    {
      "id": 14,
      "content": "<answer>",
      "single_word": false,
      "lstrip": false,
      "rstrip": false,
      "normalized": false,
      "special": true
    },
    {
      "id": 15,
      "content": "</answer>",
      "single_word": false,
      "lstrip": false,
      "rstrip": false,
      "normalized": false,
      "special": true
    }
  ],
  "normalizer": null,
  "pre_tokenizer": {
    "type": "ByteLevel",
    "add_prefix_space": false,
    "trim_offsets": true,
    "use_regex": true
  },
  "post_processor": null,
  "decoder": {
    "type": "ByteLevel",
    "add_prefix_space": true,
    "trim_offsets": true,
    "use_regex": true
  },
  "model": {
    "type": "BPE",
    "dropout": null,
    "unk_token": null,
    "continuing_subword_prefix": null,
    "end_of_word_suffix": null,
    "fuse_unk": false,
    "byte_fallback": false,
    "ignore_merges": false,
    "vocab": {
      "<|pad|>": 0,
      "<|endoftext|>": 1,
      "<|system|>": 2,
      "<|user|>": 3,
      "<|assistant|>": 4,
      "<|tool|>": 5,
      "<|end|>": 6,
      "<|fim_prefix|>": 7,
      "<|fim_suffix|>": 8,
      "<|fim_middle|>": 9,
      "<|thinking|>": 10,
      "<|direct|>": 11,
      "<think>": 12,
      "</think>": 13,
      "<answer>": 14,
      "</answer>": 15,
      "!": 16,
      "\"": 17,
      "#": 18,
      "$": 19,
      "%": 20,
      "&": 21,
      "'": 22,
      "(": 23,
      ")": 24,
      "*": 25,
      "+": 26,
      ",": 27,
      "-": 28,
      ".": 29,
      "/": 30,
      "0": 31,
      "1": 32,
      "2": 33,
      "3": 34,
      "4": 35,
      "5": 36,
      "6": 37,
      "7": 38,
      "8": 39,
      "9": 40,
      ":": 41,
      ";": 42,
      "<": 43,
      "=": 44,
      ">": 45,
      "?": 46,
      "@": 47,
      "A": 48,
      "B": 49,
      "C": 50,
      "D": 51,
      "E": 52,
      "F": 53,
      "G": 54,
      "H": 55,
      "I": 56,
      "J": 57,
      "K": 58,
      "L": 59,
      "M": 60,
      "N": 61,
      "O": 62,
      "P": 63,
      "Q": 64,
      "R": 65,
      "S": 66,
      "T": 67,
      "U": 68,
      "V": 69,
      "W": 70,
      "X": 71,
      "Y": 72,
      "Z": 73,
      "[": 74,
      "\\": 75,
      "]": 76,
      "^": 77,
      "_": 78,
      "`": 79,
      "a": 80,
      "b": 81,
      "c": 82,
      "d": 83,
      "e": 84,
      "f": 85,
      "g": 86,
      "h": 87,
      "i": 88,
      "j": 89,
      "k": 90,
      "l": 91,
      "m": 92,
      "n": 93,
      "o": 94,
      "p": 95,
      "q": 96,
      "r": 97,
      "s": 98,
      "t": 99,
      "u": 100,
      "v": 101,
      "w": 102,
      "x": 103,
      "y": 104,
      "z": 105,
      "{": 106,
      "|": 107,
      "}": 108,
      "~": 109,
      "¡": 110,
      "¢": 111,
      "£": 112,
      "¤": 113,
      "¥": 114,
      "¦": 115,
      "§": 116,
      "¨": 117,
      "©": 118,
      "ª": 119,
      "«": 120,
      "¬": 121,
      "®": 122,
      "¯": 123,
      "°": 124,
      "±": 125,
      "²": 126,
      "³": 127,
      "´": 128,
      "µ": 129,
      "¶": 130,
      "·": 131,
      "¸": 132,
      "¹": 133,
      "º": 134,
      "»": 135,
      "¼": 136,
      "½": 137,
      "¾": 138,
      "¿": 139,
      "À": 140,
      "Á": 141,
      "Â": 142,
      "Ã": 143,
      "Ä": 144,
      "Å": 145,
      "Æ": 146,
      "Ç": 147,
      "È": 148,
      "É": 149,
      "Ê": 150,
      "Ë": 151,
      "Ì": 152,
      "Í": 153,
      "Î": 154,
      "Ï": 155,
      "Ð": 156,
      "Ñ": 157,
      "Ò": 158,
      "Ó": 159,
      "Ô": 160,
      "Õ": 161,
      "Ö": 162,
      "×": 163,
      "Ø": 164,
      "Ù": 165,
      "Ú": 166,
      "Û": 167,
      "Ü": 168,
      "Ý": 169,
      "Þ": 170,
      "ß": 171,
      "à": 172,
      "á": 173,
      "â": 174,
      "ã": 175,
      "ä": 176,
      "å": 177,
      "æ": 178,
      "ç": 179,
      "è": 180,
      "é": 181,
      "ê": 182,
      "ë": 183,
      "ì": 184,
      "í": 185,
      "î": 186,
      "ï": 187,
      "ð": 188,
      "ñ": 189,
      "ò": 190,
      "ó": 191,
      "ô": 192,
      "õ": 193,
      "ö": 194,
      "÷": 195,
      "ø": 196,
      "ù": 197,
      "ú": 198,
      "û": 199,
      "ü": 200,
      "ý": 201,
      "þ": 202,
      "ÿ": 203,
      "Ā": 204,
      "ā": 205,
      "Ă": 206,
      "ă": 207,
      "Ą": 208,
      "ą": 209,
      "Ć": 210,
      "ć": 211,
      "Ĉ": 212,
      "ĉ": 213,
      "Ċ": 214,
      "ċ": 215,
      "Č": 216,
      "č": 217,
      "Ď": 218,
      "ď": 219,
      "Đ": 220,
      "đ": 221,
      "Ē": 222,
      "ē": 223,
      "Ĕ": 224,
      "ĕ": 225,
      "Ė": 226,
      "ė": 227,
      "Ę": 228,
      "ę": 229,
      "Ě": 230,
      "ě": 231,
      "Ĝ": 232,
      "ĝ": 233,
      "Ğ": 234,
      "ğ": 235,
      "Ġ": 236,
      "ġ": 237,
      "Ģ": 238,
      "ģ": 239,
      "Ĥ": 240,
      "ĥ": 241,
      "Ħ": 242,
      "ħ": 243,
      "Ĩ": 244,
      "ĩ": 245,
      "Ī": 246,
      "ī": 247,
      "Ĭ": 248,
      "ĭ": 249,
      "Į": 250,
      "į": 251,
      "İ": 252,
      "ı": 253,
      "Ĳ": 254,
      "ĳ": 255,
      "Ĵ": 256,
      "ĵ": 257,
      "Ķ": 258,
      "ķ": 259,
      "ĸ": 260,
      "Ĺ": 261,
      "ĺ": 262,
      "Ļ": 263,
      "ļ": 264,
      "Ľ": 265,
      "ľ": 266,
      "Ŀ": 267,
      "ŀ": 268,
      "Ł": 269,
      "ł": 270,
      "Ń": 271,
      "ĠĠ": 272,
      "Ġt": 273,
      "in": 274,
      "Ġa": 275,
      "he": 276,
      "re": 277,
      "on": 278,
      "ĠĠĠĠ": 279,
      "er": 280,
      "at": 281,
      "Ġs": 282,
      "Ġthe": 283,
      "en": 284,
      "or": 285,
      "Ġc": 286,
      "es": 287,
      "Ġw": 288,
      "is": 289,
      "it": 290,
      "Ġo": 291,
      "an": 292,
      "al": 293,
      "ing": 294,
      "Ġp": 295,
      "Ġf": 296,
      "ou": 297,
      "Ġb": 298,
      "Ġan": 299,
      "ar": 300,
      "Ġm": 301,
      "ed": 302,
      "Ġd": 303,
      "ion": 304,
      "Ġin": 305,
      "Ġof": 306,
      "le": 307,
      "Ġto": 308,
      "ic": 309,
      "Ġand": 310,
      "ĠĠĠ": 311,
      "om": 312,
      "el": 313,
      "Ġth": 314,
      "as": 315,
      "ct": 316,
      "Ġh": 317,
      "Ġn": 318,
      "ent": 319,
      "Ġe": 320,
      "et": 321,
      "st": 322,
      "Ġre": 323,
      "Ġl": 324,
      "ro": 325,
      "il": 326,
      "im": 327,
      "ĠĠĠĠĠĠĠĠ": 328,
      "Ġis": 329,
      "Ġg": 330,
      "ut": 331,
      "ra": 332,
      "ve": 333,
      "ol": 334,
      "ot": 335,
      "ĠT": 336,
      "ow": 337,
      "id": 338,
      "se": 339,
      "Ġ=": 340,
      "ig": 341,
      "ĠI": 342,
      "ur": 343,
      "ation": 344,
      "Ġy": 345,
      "ce": 346,
      "ly": 347,
      "Ġfor": 348,
      "am": 349,
      "Ġu": 350,
      "ĠĠĠĠĠĠĠ": 351,
      "ch": 352,
      "Ġbe": 353,
      "if": 354,
      "ĠA": 355,
      "Ġst": 356,
      "ĠS": 357,
      "ul": 358,
      "âĢ": 359,
      "ver": 360,
      "Ġthat": 361,
      "Ġon": 362,
      "ay": 363,
      "Ġ1": 364,
      "Ġyou": 365,
      "um": 366,
      "Ġ(": 367,
      "ad": 368,
      "ir": 369,
      "ith": 370,
      "ĠC": 371,
      "Ġit": 372,
      "od": 373,
      "--": 374,
      "Ġas": 375,
      "Ġcon": 376,
      "qu": 377,
      "ge": 378,
      "Âł": 379,
      "ter": 380,
      "Ġwith": 381,
      "her": 382,
      "Ġwh": 383,
      "ate": 384,
      "##": 385,
      "nd": 386,
      "ist": 387,
      "Ġde": 388,
      "Ġal": 389,
      "ab": 390,
      "Ġpro": 391,
      "ers": 392,
      "Ġex": 393,
      "te": 394,
      "Ġ2": 395,
      "Ġv": 396,
      "Ġare": 397,
      "pe": 398,
      "Ġor": 399,
      "ĠP": 400,
      "ri": 401,
      "ess": 402,
      "res": 403,
      "elf": 404,
      "ĠM": 405,
      "est": 406,
      "ke": 407,
      "Ġwe": 408,
      "end": 409,
      "pl": 410,
      "and": 411,
      "th": 412,
      "ĠThe": 413,
      "igh": 414,
      "Ġhe": 415,
      "Ġcom": 416,
      "iv": 417,
      "us": 418,
      "os": 419,
      "rom": 420,
      "ore": 421,
      "ĠB": 422,
      "Ġr": 423,
      "op": 424,
      "ill": 425,
      "un": 426,
      "ment": 427,
      "ac": 428,
      "ity": 429,
      "Ġ\"": 430,
      "ld": 431,
      "ort": 432,
      "ĠW": 433,
      "ies": 434,
      "ction": 435,
      "nt": 436,
      "em": 437,
      "ap": 438,
      "ĠF": 439,
      "ain": 440,
      "Ġsu": 441,
      "oc": 442,
      "Ġse": 443,
      "ĠD": 444,
      "ight": 445,
      "00": 446,
      "ĠH": 447,
      "Ġne": 448,
      "ive": 449,
      "Ġat": 450,
      "ave": 451,
      "ant": 452,
      "ĠR": 453,
      "Ġby": 454,
      "Ġcan": 455,
      "ĠE": 456,
      "ĠĠĠĠĠĠĠĠĠĠĠ": 457,
      "Ġthis": 458,
      "Ġch": 459,
      "Ġnot": 460,
      "ĠN": 461,
      "Ġle": 462,
      "art": 463,
      "ial": 464,
      "ure": 465,
      "'s": 466,
      "Ġsh": 467,
      "all": 468,
      "ĠL": 469,
      "xt": 470,
      "out": 471,
      "ue": 472,
      "Ġfrom": 473,
      "ine": 474,
      "iz": 475,
      "og": 476,
      "Ġhave": 477,
      "imp": 478,
      "ud": 479,
      "ag": 480,
      "rou": 481,
      "ust": 482,
      "Ġab": 483,
      "int": 484,
      "pt": 485,
      "Ġk": 486,
      "ical": 487,
      "ould": 488,
      "Ġ-": 489,
      "Ġif": 490,
      "ĠG": 491,
      "fe": 492,
      "ome": 493,
      "----": 494,
      "ame": 495,
      "Ġwor": 496,
      "red": 497,
      "ind": 498,
      "pp": 499,
      "Ġwas": 500,
      "age": 501,
      "âĢĻ": 502,
      "..": 503,
      "Ġself": 504,
      "Ġus": 505,
      "ult": 506,
      "gh": 507,
      "our": 508,
      "):": 509,
      "ard": 510,
      "Ġ3": 511,
      "ass": 512,
      "Ġyour": 513,
      "Ġpl": 514,
      "Ġen": 515,
      "Ġwhe": 516,
      "ĠO": 517,
      "ost": 518,
      "Ġme": 519,
      "per": 520,
      "one": 521,
      "Ġdo": 522,
      "ĠâĢ": 523,
      "orm": 524,
      "ell": 525,
      "Ġ0": 526,
      "Ġj": 527,
      "Ġall": 528,
      "Ġ'": 529,
      "ime": 530,
      "ations": 531,
      "Ġ\\": 532,
      "ions": 533,
      "ber": 534,
      "ide": 535,
      "cl": 536,
      "urn": 537,
      "Ġint": 538,
      "ther": 539,
      "ich": 540,
      "ak": 541,
      "ans": 542,
      "ple": 543,
      "Ġ+": 544,
      "Ġ$": 545,
      "ile": 546,
      "self": 547,
      "act": 548,
      "able": 549,
      "__": 550,
      "of": 551,
      "ous": 552,
      "Ġthey": 553,
      "are": 554,
      "ks": 555,
      "Ġres": 556,
      "ie": 557,
      "Ġwill": 558,
      "ath": 559,
      "ance": 560,
      "The": 561,
      "ĠTh": 562,
      "Ġtheir": 563,
      "ep": 564,
      "ne": 565,
      "Ġad": 566,
      "ast": 567,
      "ÂłÂł": 568,
      "Ġ#": 569,
      "oo": 570,
      "ated": 571,
      "Ġnum": 572,
      "ong": 573,
      "text": 574,
      "ble": 575,
      "čĊ": 576,
      "ry": 577,
      "ip": 578,
      "Ġout": 579,
      "ach": 580,
      "Ġli": 581,
      "Ġimp": 582,
      "Ġbut": 583,
      "ally": 584,
      "Ġcl": 585,
      "ice": 586,
      "du": 587,
      "Ġgo": 588,
      "cc": 589,
      "Ġar": 590,
      "Ġun": 591,
      "ary": 592,
      "Ġone": 593,
      "ĠU": 594,
      "ack": 595,
      "de": 596,
      "Ġcont": 597,
      "av": 598,
      "ign": 599,
      "ĠIn": 600,
      "Ġdis": 601,
      "ence": 602,
      "Ġqu": 603,
      "ite": 604,
      "Ġabout": 605,
      "ents": 606,
      "ake": 607,
      "Ġwhich": 608,
      "ang": 609,
      "()": 610,
      "Ġ4": 611,
      "ata": 612,
      "ase": 613,
      "Ġhas": 614,
      "ĠJ": 615,
      "Ġdef": 616,
      "ress": 617,
      "con": 618,
      "Ġmore": 619,
      "ru": 620,
      "\"\"": 621,
      "vel": 622,
      "Ġso": 623,
      "ĠĠĠĠĠĠĠĠĠĠĠĠĠĠĠĠ": 624,
      "ace": 625,
      "Ġup": 626,
      "very": 627,
      "Ġx": 628,
      "turn": 629,
      "),": 630,
      "####": 631,
      "ear": 632,
      "form": 633,
      "Ġother": 634,
      "ens": 635,
      "Ġcomp": 636,
      "Ġper": 637,
      "ors": 638,
      "now": 639,
      "ition": 640,
      "rac": 641,
      "Ġev": 642,
      "ord": 643,
      "Ġman": 644,
      ").": 645,
      "Ġte": 646,
      "Ġpr": 647,
      "Ġro": 648,
      "ces": 649,
      "au": 650,
      "Ġ[": 651,
      "Ġ5": 652,
      "Ġsc": 653,
      "ose": 654,
      "Ġsp": 655,
      "'t": 656,
      "ely": 657,
      "ect": 658,
      "ount": 659,
      "ree": 660,
      "ound": 661,
      "Ġthem": 662,
      "Ġsome": 663,
      "Ġhow": 664,
      "Ġval": 665,
      "ict": 666,
      "ub": 667,
      "ph": 668,
      "Ġlike": 669,
      "ren": 670,
      "Ġtime": 671,
      "reat": 672,
      "Ġreturn": 673,
      "ory": 674,
      "rent": 675,
      "Ġinto": 676,
      "Ġget": 677,
      "ire": 678,
      "Ġthere": 679,
      "lo": 680,
      "king": 681,
      "Ġwhat": 682,
      "so": 683,
      "ays": 684,
      "nder": 685,
      "low": 686,
      "Ġtr": 687,
      "get": 688,
      "|>": 689,
      "<|": 690,
      "endof": 691,
      "endoftext": 692,
      "ings": 693,
      "we": 694,
      "Ġwho": 695,
      "Ġcol": 696,
      "Ġbec": 697,
      "01": 698,
      "==": 699,
      "Ġfe": 700,
      "Ġwhen": 701,
      "ĠĠĠĠĠĠĠĠĠĠĠĠĠĠĠ": 702,
      "ms": 703,
      "ff": 704,
      "ia": 705,
      "Ġpe": 706,
      "Ġbet": 707,
      "Ġpart": 708,
      "Ġmy": 709,
      "Ġknow": 710,
      "ys": 711,
      "ĠY": 712,
      "oint": 713,
      "Ġany": 714,
      "wo": 715,
      "ari": 716,
      "Ġthese": 717,
      "ove": 718,
      "Ġpre": 719,
      "Ġwould": 720,
      "Ġthan": 721,
      "ough": 722,
      "Ġour": 723,
      "Ġdif": 724,
      "put": 725,
      "ild": 726,
      "ject": 727,
      "$$": 728,
      "ual": 729,
      "Ġspe": 730,
      "ail": 731,
      "ĠIt": 732,
      "ĠSt": 733,
      "--------": 734,
      "ert": 735,
      "Ġhis": 736,
      "ĠV": 737,
      "rough": 738,
      "))": 739,
      "ange": 740,
      "ll": 741,
      "ĠK": 742,
      "eth": 743,
      "',": 744,
      "**": 745,
      "ating": 746,
      "ize": 747,
      "les": 748,
      "Ġsy": 749,
      "irst": 750,
      "ater": 751,
      "Ġag": 752,
      "Ġcomm": 753,
      "rit": 754,
      "ics": 755,
      "ople": 756,
      "ates": 757,
      "Ġover": 758,
      "ĠThis": 759,
      "Ġalso": 760,
      "}{": 761,
      "ty": 762,
      "row": 763,
      "Ġ{": 764,
      "Ġunder": 765,
      "Ġ6": 766,
      "Ġequ": 767,
      "Ġneed": 768,
      "ax": 769,
      "ities": 770,
      "Ġem": 771,
      "ook": 772,
      "``": 773,
      "Ġits": 774,
      "ause": 775,
      "Ġnew": 776,
      "val": 777,
      "unction": 778,
      "rib": 779,
      "Ġnumber": 780,
      "ode": 781,
      "hat": 782,
      "Ġuse": 783,
      "ments": 784,
      "ram": 785,
      "Ġtwo": 786,
      "app": 787,
      "Ġno": 788,
      "ise": 789,
      "Ġjust": 790,
      "Ġwere": 791,
      "Ġinter": 792,
      "Ġam": 793,
      "com": 794,
      "arn": 795,
      "Ġimport": 796,
      "ov": 797,
      "ĠCh": 798,
      "ution": 799,
      "ick": 800,
      "ons": 801,
      "Ġpeople": 802,
      "vers": 803,
      "Ġob": 804,
      "ific": 805,
      "Ġstr": 806,
      "ues": 807,
      "Ġtra": 808,
      "ish": 809,
      "lp": 810,
      "ft": 811,
      "âĢĿ": 812,
      "its": 813,
      "lect": 814,
      "erv": 815,
      "ful": 816,
      "Ġpos": 817,
      "Ġacc": 818,
      "Ġthen": 819,
      "Ġass": 820,
      "Ġind": 821,
      "Ġdiffe": 822,
      "Ġrel": 823,
      "Ġ:": 824,
      "cess": 825,
      "Ġapp": 826,
      "ample": 827,
      "Ġstud": 828,
      "ob": 829,
      "ck": 830,
      "Ġhelp": 831,
      "In": 832,
      "round": 833,
      "ink": 834,
      "Ġdes": 835,
      "Ġim": 836,
      "Ġsol": 837,
      "Ġact": 838,
      "Ġcons": 839,
      "pect": 840,
      "Ġra": 841,
      "Ġel": 842,
      "Ġwork": 843,
      "Ġ\"\"\"": 844,
      "\",": 845,
      "cre": 846,
      "ract": 847,
      "ient": 848,
      "ex": 849,
      "Ġform": 850,
      "ular": 851,
      "Ġthrough": 852,
      "ib": 853,
      "cept": 854,
      "...": 855,
      "ds": 856,
      "ures": 857,
      "âĢ¢": 858,
      "olog": 859,
      "Ġsuch": 860,
      "Ġmay": 861,
      "own": 862,
      "frac": 863,
      "Ġfirst": 864,
      "Ġ7": 865,
      "Ġonly": 866,
      "Ġeach": 867,
      "ility": 868,
      "Ġyear": 869,
      "ative": 870,
      "Ġset": 871,
      "Ġmod": 872,
      "ween": 873,
      "fect": 874,
      "Ġwhere": 875,
      "oth": 876,
      "Ġpoint": 877,
      "stem": 878,
      "aw": 879,
      "Ġhad": 880,
      "Ġadd": 881,
      "ener": 882,
      "Ġdata": 883,
      "arg": 884,
      "Ġher": 885,
      "Ġco": 886,
      "Ġoff": 887,
      "ĠâĢľ": 888,
      "Ġbeen": 889,
      "ark": 890,
      "Ġbetween": 891,
      "Ġi": 892,
      "Ġsub": 893,
      "als": 894,
      "Ġmat": 895,
      "ian": 896,
      "Ġevery": 897,
      "ting": 898,
      "ible": 899,
      "Ġfunction": 900,
      "hen": 901,
      "Ġrem": 902,
      "ss": 903,
      "Ġrec": 904,
      "Ġreg": 905,
      "Ġ10": 906,
      "Ġinte": 907,
      "ĠâĢĵ": 908,
      "Ġfind": 909,
      "ood": 910,
      "fore": 911,
      "ps": 912,
      "10": 913,
      "hes": 914,
      "ious": 915,
      "erm": 916,
      "clud": 917,
      "imes": 918,
      "Ġspec": 919,
      "fter": 920,
      "der": 921,
      "Ġmany": 922,
      "Ġke": 923,
      "('": 924,
      "Ġ*": 925,
      "Ġvari": 926,
      "Ġbl": 927,
      "Ġ19": 928,
      "eng": 929,
      "hed": 930,
      "ower": 931,
      "Ġph": 932,
      "Ġrep": 933,
      "Ġcould": 934,
      "Ġ==": 935,
      "Ġdist": 936,
      "ĠIf": 937,
      "ĠRe": 938,
      "par": 939,
      "uring": 940,
      "Ġ8": 941,
      "Ġmake": 942,
      "],": 943,
      "Ġright": 944,
      "Ġpol": 945,
      "Ġfol": 946,
      "Ġsee": 947,
      "(\"": 948,
      "Ġexp": 949,
      "Ġap": 950,
      "Ġinst": 951,
      "Ġ9": 952,
      "Ġinv": 953,
      "ric": 954,
      "tern": 955,
      "stand": 956,
      "###": 957,
      "ool": 958,
      "Ġshould": 959,
      "ced": 960,
      "Ġ201": 961,
      "Ġsa": 962,
      "Ġbecause": 963,
      "Ġeven": 964,
      "Ġdoes": 965,
      "Ġused": 966,
      "Ġtrans": 967,
      "def": 968,
      "Ġdifferent": 969,
      "ten": 970,
      "Ġgra": 971,
      "Ġsm": 972,
      "ctions": 973,
      "Ġway": 974,
      "ÂłÂłÂłÂł": 975,
      "sh": 976,
      "iew": 977,
      "Ġmost": 978,
      "Ġcall": 979,
      "Ġbu": 980,
      "Ġty": 981,
      "name": 982,
      "{\\": 983,
      "ĠWe": 984,
      "cul": 985,
      "uch": 986,
      "pr": 987,
      "Ġexpl": 988,
      "Ġprodu": 989,
      "bers": 990,
      "Ġcur": 991,
      "Ġprov": 992,
      "ices": 993,
      "ased": 994,
      "Th": 995,
      "ines": 996,
      "}}": 997,
      "Ġpar": 998,
      "ied": 999,
      "Ġusing": 1000,
      "Ġvalue": 1001,
      "Ġgiv": 1002,
      "wn": 1003,
      "ĠHe": 1004,
      "Ġlearn": 1005,
      "Ġ$$": 1006,
      "str": 1007,
      "Ġsame": 1008,
      "Ġ&": 1009,
      "iss": 1010,
      "ĠHow": 1011,
      "Ġsystem": 1012,
      "aking": 1013,
      "')": 1014,
      "Ġshe": 1015,
      "ident": 1016,
      "Ġproble": 1017,
      "Ġback": 1018,
      "ffect": 1019,
      "other": 1020,
      "ray": 1021,
      "ward": 1022,
      "mer": 1023,
      "ock": 1024,
      "Ġcre": 1025,
      "Ġmin": 1026,
      "Ġfact": 1027,
      "mat": 1028,
      "Ġprint": 1029,
      "Ġinclud": 1030,
      "ont": 1031,
      "Ġdec": 1032,
      "Ġwant": 1033,
      "ĠAn": 1034,
      "Ġpers": 1035,
      "Ġwhile": 1036,
      "ational": 1037,
      "Ġac": 1038,
      "sc": 1039,
      "ife": 1040,
      "Ġresult": 1041,
      "Ġstart": 1042,
      "])": 1043,
      "Ġtest": 1044,
      "read": 1045,
      "Ġatt": 1046,
      "ror": 1047,
      "ĠEx": 1048,
      "Ġfollow": 1049,
      "Ġdisc": 1050,
      "Ġdi": 1051,
      "ix": 1052,
      "oy": 1053,
      "sw": 1054,
      "12": 1055,
      "be": 1056,
      "ily": 1057,
      "\")": 1058,
      "Ġread": 1059,
      "Ġcor": 1060,
      "Ġsur": 1061,
      "Ġsign": 1062,
      "to": 1063,
      "resent": 1064,
      "alth": 1065,
      "ature": 1066,
      "velop": 1067,
      "ĠUn": 1068,
      "ts": 1069,
      "chn": 1070,
      "ade": 1071,
      "Ġsom": 1072,
      "the": 1073,
      "ential": 1074,
      "Ġbel": 1075,
      "Ġline": 1076,
      "Ġquest": 1077,
      "Ġlist": 1078,
      "Ġend": 1079,
      "cy": 1080,
      "Ġdon": 1081,
      "########": 1082,
      "alcul": 1083,
      "000": 1084,
      "Ġthose": 1085,
      "ically": 1086,
      "up": 1087,
      "Ġexper": 1088,
      "iel": 1089,
      "ually": 1090,
      "Ġcomple": 1091,
      "ĠPro": 1092,
      "ning": 1093,
      "ience": 1094,
      "Ġins": 1095,
      "Ġmuch": 1096,
      "Ġent": 1097,
      "Ġdet": 1098,
      "arch": 1099,
      "Ġwell": 1100,
      "plic": 1101,
      "ator": 1102,
      "pport": 1103,
      "Ġworld": 1104,
      "====": 1105,
      "erg": 1106,
      "Ġgener": 1107,
      "Ġ/": 1108,
      "day": 1109,
      "inal": 1110,
      "old": 1111,
      "ethod": 1112,
      "Ġdid": 1113,
      "from": 1114,
      "ng": 1115,
      "ins": 1116,
      "ĠYou": 1117,
      "ages": 1118,
      "ĠFor": 1119,
      "Ġfl": 1120,
      "ute": 1121,
      "right": 1122,
      "Ġunderstand": 1123,
      "Ġlong": 1124,
      "els": 1125,
      "Ġrequ": 1126,
      "Ġafter": 1127,
      "Ġboth": 1128,
      "wor": 1129,
      "ism": 1130,
      "data": 1131,
      "Ġche": 1132,
      "ĠDe": 1133,
      "ivid": 1134,
      "air": 1135,
      "path": 1136,
      "ever": 1137,
      "Ġplay": 1138,
      "ruct": 1139,
      "cent": 1140,
      "iqu": 1141,
      "Ġelse": 1142,
      "ness": 1143,
      "pro": 1144,
      "ined": 1145,
      "Ġbeing": 1146,
      "ists": 1147,
      "Ġed": 1148,
      "ubl": 1149,
      "Ġ`": 1150,
      "Ġvery": 1151,
      "Ġdown": 1152,
      "Ġreal": 1153,
      "Ġcount": 1154,
      "import": 1155,
      "ĠCom": 1156,
      "Ġnp": 1157,
      "ars": 1158,
      "20": 1159,
      "Ġyears": 1160,
      "Ġdevelop": 1161,
      "Ġnow": 1162,
      "ural": 1163,
      "vent": 1164,
      "Ġ<": 1165,
      "Ġshow": 1166,
      "ets": 1167,
      "fl": 1168,
      "Ġ)": 1169,
      "ince": 1170,
      "Ġclass": 1171,
      "Ġthink": 1172,
      "':": 1173,
      "tle": 1174,
      "py": 1175,
      "gan": 1176,
      "ĠAl": 1177,
      "ond": 1178,
      "rue": 1179,
      "ives": 1180,
      "ape": 1181,
      "led": 1182,
      "Ġtoo": 1183,
      "Ġmean": 1184,
      "Ġchild": 1185,
      "ized": 1186,
      "Ġlet": 1187,
      "akes": 1188,
      "Ġsoc": 1189,
      "ĠĠĠĠĠĠĠĠĠĠĠĠĠĠĠĠĠĠĠ": 1190,
      "formation": 1191,
      "Ġexample": 1192,
      "ples": 1193,
      "Ġart": 1194,
      "Ġ.": 1195,
      "line": 1196,
      "Ġgood": 1197,
      "rest": 1198,
      "ĠWhat": 1199,
      "Ġhigh": 1200,
      "Ġown": 1201,
      "Ġgu": 1202,
      "Ġsk": 1203,
      "uc": 1204,
      "ional": 1205,
      "ene": 1206,
      "Ġlit": 1207,
      "_{": 1208,
      "ves": 1209,
      "Ġz": 1210,
      "Ġtechn": 1211,
      "Ġthough": 1212,
      "Ġext": 1213,
      "Ġpat": 1214,
      "Ġprocess": 1215,
      "ody": 1216,
      "Ġfound": 1217,
      "Ġgiven": 1218,
      "Ġagain": 1219,
      "ĠQ": 1220,
      "Ġ200": 1221,
      "Ġtake": 1222,
      "11": 1223,
      "ĠThey": 1224,
      "Ġsaid": 1225,
      "âĪ": 1226,
      "Ġcent": 1227,
      "uss": 1228,
      "ern": 1229,
      "^{": 1230,
      "Ġappro": 1231,
      "Ġop": 1232,
      "ather": 1233,
      "arm": 1234,
      "Ġcommun": 1235,
      "Ġmult": 1236,
      "ology": 1237,
      "Ġbefore": 1238,
      "ĠAnd": 1239,
      "Ġgrou": 1240,
      "ier": 1241,
      "ify": 1242,
      "Ġaround": 1243,
      "Ġ20": 1244,
      "Ġsim": 1245,
      "Ġ12": 1246,
      "play": 1247,
      "cial": 1248,
      "Ġprog": 1249,
      "ability": 1250,
      "gg": 1251,
      "Ġhand": 1252,
      "Ġ|": 1253,
      "ĠAs": 1254,
      "ale": 1255,
      "Ġmight": 1256,
      "Ġgreat": 1257,
      "Ġconst": 1258,
      "Ġperson": 1259,
      "Ġhim": 1260,
      "ĠNe": 1261,
      "Ġloc": 1262,
      "dition": 1263,
      "Ġref": 1264,
      "Ġmed": 1265,
      "Ġele": 1266,
      "Ġ>": 1267,
      "pos": 1268,
      "ĠBut": 1269,
      "ved": 1270,
      "Ġtry": 1271,
      "Ġfam": 1272,
      "Ġstate": 1273,
      "Ġnumbers": 1274,
      "ited": 1275,
      "ger": 1276,
      "ider": 1277,
      "over": 1278,
      "ull": 1279,
      "set": 1280,
      "Ġresp": 1281,
      "Ġhere": 1282,
      "Ġlife": 1283,
      "ross": 1284,
      "ething": 1285,
      "____": 1286,
      "rence": 1287,
      "._": 1288,
      "ĠNone": 1289,
      "Ġpartic": 1290,
      "chool": 1291,
      ".\"": 1292,
      "arly": 1293,
      "ides": 1294,
      "----------------": 1295,
      "ases": 1296,
      "Ġless": 1297,
      "ci": 1298,
      "Ġhum": 1299,
      "swer": 1300,
      "Ġmust": 1301,
      "Ġtri": 1302,
      "Ġsum": 1303,
      "Ġpower": 1304,
      "Ġcontin": 1305,
      "Ġposs": 1306,
      "col": 1307,
      "Ġhealth": 1308,
      "ength": 1309,
      "Ġbo": 1310,
      "ĠSe": 1311,
      "Ġpass": 1312,
      "Ġcalled": 1313,
      "Ġchar": 1314,
      "ving": 1315,
      "atch": 1316,
      "Ġmade": 1317,
      "Ġ%": 1318,
      "ames": 1319,
      "['": 1320,
      "Ġobject": 1321,
      "This": 1322,
      "Ġmon": 1323,
      "Ġmain": 1324,
      "und": 1325,
      "Ġsmall": 1326,
      "ĉĉ": 1327,
      "gr": 1328,
      "Ġlead": 1329,
      "Ġduring": 1330,
      "Ġdire": 1331,
      "io": 1332,
      "uth": 1333,
      "Ġsomething": 1334,
      "ven": 1335,
      "ĠWh": 1336,
      "Ġbr": 1337,
      "irc": 1338,
      "Ġopt": 1339,
      "Ġincre": 1340,
      "ĠCon": 1341,
      "ety": 1342,
      "Ġwrit": 1343,
      "tt": 1344,
      "ining": 1345,
      "Ġhist": 1346,
      "ĠÂł": 1347,
      "Ġday": 1348,
      "Ġthree": 1349,
      "Ġeffect": 1350,
      "oss": 1351,
      "Ġsay": 1352,
      "Ġwithin": 1353,
      "Ġaw": 1354,
      "ĠSo": 1355,
      "for": 1356,
      "Ġcar": 1357,
      "file": 1358,
      "Ġallow": 1359,
      "Ġcap": 1360,
      "hip": 1361,
      "Ġmethod": 1362,
      "cond": 1363,
      "AT": 1364,
      "any": 1365,
      "Ġcalcul": 1366,
      "Ġdep": 1367,
      "ters": 1368,
      "Ġplan": 1369,
      "Ġmem": 1370,
      "tem": 1371,
      "ired": 1372,
      "itive": 1373,
      "15": 1374,
      "Ġpract": 1375,
      "Ġpop": 1376,
      "Ġser": 1377,
      "19": 1378,
      "class": 1379,
      "ote": 1380,
      "Ġwater": 1381,
      "gin": 1382,
      "Ġlook": 1383,
      "meric": 1384,
      "ffic": 1385,
      "alse": 1386,
      "ield": 1387,
      "Ġinformation": 1388,
      "ted": 1389,
      "ision": 1390,
      "me": 1391,
      "Ġlog": 1392,
      "ants": 1393,
      "Ġname": 1394,
      "ared": 1395,
      "Ġvalues": 1396,
      "Ġfil": 1397,
      "ense": 1398,
      "Ġsimp": 1399,
      "ality": 1400,
      "Ġstudents": 1401,
      "Ġconf": 1402,
      "ĠAr": 1403,
      "//": 1404,
      "rite": 1405,
      "Ġanother": 1406,
      "ĠSh": 1407,
      "Ġstill": 1408,
      "Ġserv": 1409,
      "Ġinc": 1410,
      "ways": 1411,
      "itions": 1412,
      "ĠĠĠĠĠ": 1413,
      "Ġproblem": 1414,
      "Ġhapp": 1415,
      "tain": 1416,
      "ĠX": 1417,
      "Ġthings": 1418,
      "ateg": 1419,
      "Ġlevel": 1420,
      "ots": 1421,
      "ead": 1422,
      "ah": 1423,
      "}$": 1424,
      "yle": 1425,
      "oun": 1426,
      "25": 1427,
      "ences": 1428,
      "Ġcare": 1429,
      "raw": 1430,
      "Ġmet": 1431,
      "here": 1432,
      "Ġimportant": 1433,
      "riend": 1434,
      "ug": 1435,
      "Ġide": 1436,
      "ization": 1437,
      "math": 1438,
      "Ġcle": 1439,
      "Ġrese": 1440,
      "St": 1441,
      "}\\": 1442,
      "umn": 1443,
      "ĠAd": 1444,
      "ript": 1445,
      "list": 1446,
      "rix": 1447,
      "less": 1448,
      "ctor": 1449,
      "ec": 1450,
      "aving": 1451,
      "raph": 1452,
      "ner": 1453,
      "ividual": 1454,
      "Ġstand": 1455,
      "Ġve": 1456,
      "Ġbre": 1457,
      "type": 1458,
      "Ġgrow": 1459,
      "Ġ15": 1460,
      "ĠAmeric": 1461,
      "']": 1462,
      "ash": 1463,
      "Ġoften": 1464,
      "Ġdel": 1465,
      "Ġrange": 1466,
      "left": 1467,
      "Ġinterest": 1468,
      "ma": 1469,
      "iron": 1470,
      "ĠThere": 1471,
      "Ġarg": 1472,
      "ER": 1473,
      "Ġrun": 1474,
      "ument": 1475,
      "num": 1476,
      "ively": 1477,
      "Ġchange": 1478,
      "'re": 1479,
      "Ġcurrent": 1480,
      "andom": 1481,
      "Ġreally": 1482,
      "log": 1483,
      "Ġwithout": 1484,
      "ublic": 1485,
      "ank": 1486,
      "Ġtop": 1487,
      "Ġfeel": 1488,
      "iness": 1489,
      "yn": 1490,
      "br": 1491,
      "Ġav": 1492,
      "Ġbetter": 1493,
      "view": 1494,
      "work": 1495,
      "rect": 1496,
      "rain": 1497,
      "Ġident": 1498,
      "Ġ18": 1499,
      "ĠTo": 1500,
      "ason": 1501,
      "Ġprob": 1502,
      "Ġeng": 1503,
      "ta": 1504,
      "Ġgoing": 1505,
      "Ġtype": 1506,
      "Ġsqu": 1507,
      "Ġmeas": 1508,
      "ories": 1509,
      "Ġter": 1510,
      "Ġfollowing": 1511,
      "Ġconne": 1512,
      "ertain": 1513,
      "Ġcase": 1514,
      "olution": 1515,
      "ĠLe": 1516,
      "16": 1517,
      "ids": 1518,
      "Ġeas": 1519,
      "cur": 1520,
      "Ġopen": 1521,
      "ately": 1522,
      "Ġer": 1523,
      "ital": 1524,
      "Ġsupport": 1525,
      "Ġcour": 1526,
      "Ġ$\\": 1527,
      "ables": 1528,
      "Ġmodel": 1529,
      "Ġindividual": 1530,
      "Ġmov": 1531,
      "Ġstep": 1532,
      "Ġwhy": 1533,
      "Ġcult": 1534,
      "ains": 1535,
      "Ġfin": 1536,
      "ering": 1537,
      "vert": 1538,
      "Ġadv": 1539,
      "ression": 1540,
      "\":": 1541,
      "Ġpost": 1542,
      "13": 1543,
      "ïĥ": 1544,
      "Ġtimes": 1545,
      "Ġproduct": 1546,
      "Ġcreat": 1547,
      "Ġ,": 1548,
      "='": 1549,
      "Ġcreate": 1550,
      "Ġarea": 1551,
      "ems": 1552,
      "mb": 1553,
      "li": 1554,
      "}$$": 1555,
      "Ġmeans": 1556,
      "ency": 1557,
      "Ġess": 1558,
      "ergy": 1559,
      "min": 1560,
      "Ġquestion": 1561,
      "size": 1562,
      "14": 1563,
      "Ġkey": 1564,
      "dis": 1565,
      "Ġbuild": 1566,
      "mon": 1567,
      "Ġlast": 1568,
      "\"\"\"": 1569,
      "ĠThese": 1570,
      "ann": 1571,
      "Ġpot": 1572,
      "Ġanal": 1573,
      "Ġest": 1574,
      "rodu": 1575,
      "ĠBy": 1576,
      "Ġanswer": 1577,
      "port": 1578,
      "ouse": 1579,
      "Ġplace": 1580,
      "atic": 1581,
      "Ġgr": 1582,
      "init": 1583,
      "Ġleft": 1584,
      "Ġschool": 1585,
      "test": 1586,
      "thing": 1587,
      "Ġdesign": 1588,
      "ource": 1589,
      "ivity": 1590,
      "arget": 1591,
      "Ġkeep": 1592,
      "Ġproper": 1593,
      "co": 1594,
      "lab": 1595,
      "ique": 1596,
      "Ġfile": 1597,
      "Ġorder": 1598,
      "eter": 1599,
      "Ġvis": 1600,
      "Ġtyp": 1601,
      "Ġbest": 1602,
      "add": 1603,
      "mod": 1604,
      "ulation": 1605,
      "por": 1606,
      "pre": 1607,
      "Ġtem": 1608,
      "az": 1609,
      "angle": 1610,
      "Ġsince": 1611,
      "Ġ__": 1612,
      "arent": 1613,
      "imal": 1614,
      "Ġtoget": 1615,
      "Ġtogether": 1616,
      "bs": 1617,
      "Ġsl": 1618,
      "Ex": 1619,
      "viron": 1620,
      "Ġfriend": 1621,
      "Ġnext": 1622,
      "Ġdig": 1623,
      "'m": 1624,
      "Ġalways": 1625,
      "Ġlo": 1626,
      "Ġiss": 1627,
      "Ġexam": 1628,
      "We": 1629,
      "Ġsit": 1630,
      "rol": 1631,
      "Ġinvol": 1632,
      "Ġbus": 1633,
      "Ġmark": 1634,
      "ling": 1635,
      "Ġbeh": 1636,
      "by": 1637,
      "cing": 1638,
      "ccess": 1639,
      "âĢĶ": 1640,
      "new": 1641,
      "Ġcharact": 1642,
      "Ġoper": 1643,
      "Ġbelie": 1644,
      "verse": 1645,
      "Ġturn": 1646,
      "utions": 1647,
      "Ġcommon": 1648,
      "time": 1649,
      "not": 1650,
      "Ġworks": 1651,
      "Ġchang": 1652,
      "Ġpoints": 1653,
      "If": 1654,
      "ention": 1655,
      "50": 1656,
      "append": 1657,
      "Ġbas": 1658,
      "It": 1659,
      "ivers": 1660,
      "Ġtext": 1661,
      "rame": 1662,
      "land": 1663,
      "Ġfew": 1664,
      ",\"": 1665,
      ".,": 1666,
      "ĠIs": 1667,
      "ĠCl": 1668,
      "ĠWhen": 1669,
      "Ġgroup": 1670,
      "Ġsecond": 1671,
      "Ġperform": 1672,
      "oring": 1673,
      "ĠThat": 1674,
      "Ġ11": 1675,
      "Ġdesc": 1676,
      "Ġfood": 1677,
      "Ġorgan": 1678,
      "ights": 1679,
      "Ch": 1680,
      "omen": 1681,
      "ume": 1682,
      "ished": 1683,
      "ances": 1684,
      "Ġpo": 1685,
      "ats": 1686,
      "ron": 1687,
      "Ġbased": 1688,
      "IN": 1689,
      "Ġbody": 1690,
      "Ġvarious": 1691,
      "Ġorig": 1692,
      "Ġcirc": 1693,
      "Ġmulti": 1694,
      "Ġ_": 1695,
      "Ġprof": 1696,
      "99": 1697,
      "Ġdev": 1698,
      "Ġprom": 1699,
      "ination": 1700,
      "à¤": 1701,
      "Ġput": 1702,
      "Ġsignific": 1703,
      "ser": 1704,
      "Ġ16": 1705,
      "Ġcell": 1706,
      "Ġpur": 1707,
      "Ġredu": 1708,
      "An": 1709,
      "Ġelect": 1710,
      "Ġang": 1711,
      "Ġenergy": 1712,
      "angu": 1713,
      "Ġtot": 1714,
      "Ġprote": 1715,
      "arge": 1716,
      "Ġlim": 1717,
      "iction": 1718,
      "Ġenc": 1719,
      "bo": 1720,
      "Re": 1721,
      "Ġmove": 1722,
      "Ġlaw": 1723,
      "Ġhead": 1724,
      "ified": 1725,
      "ĠNew": 1726,
      "apter": 1727,
      "Ġhome": 1728,
      "rt": 1729,
      "Ġlearning": 1730,
      "ton": 1731,
      "value": 1732,
      "Ġocc": 1733,
      "Ġequation": 1734,
      "ources": 1735,
      "ocus": 1736,
      "Ġdiv": 1737,
      "Ġgover": 1738,
      "ault": 1739,
      "Ġnon": 1740,
      "Ġstudy": 1741,
      "Ġlittle": 1742,
      "Ġold": 1743,
      "ON": 1744,
      "alk": 1745,
      "Ġcome": 1746,
      "Ġchall": 1747,
      "array": 1748,
      "ooks": 1749,
      "Ġrepresent": 1750,
      "args": 1751,
      "What": 1752,
      "rror": 1753,
      "18": 1754,
      "Ġhuman": 1755,
      "ormal": 1756,
      "Ġpossible": 1757,
      "ĠĊ": 1758,
      "Ġlab": 1759,
      "Ġ$$\\": 1760,
      "Ġmus": 1761,
      "Ġconsider": 1762,
      "omet": 1763,
      "17": 1764,
      "param": 1765,
      "Ġchildren": 1766,
      "conom": 1767,
      "ask": 1768,
      "Ġvol": 1769,
      "30": 1770,
      "Ġinput": 1771,
      "][": 1772,
      "aterial": 1773,
      "Ġmax": 1774,
      "iod": 1775,
      "ral": 1776,
      "istic": 1777,
      "ĠOn": 1778,
      "Ġcomplex": 1779,
      "idd": 1780,
      "Ġ14": 1781,
      "Ġ**": 1782,
      "ember": 1783,
      "clus": 1784,
      "Ġothers": 1785,
      "ek": 1786,
      "Ġpres": 1787,
      "oci": 1788,
      "ilar": 1789,
      "ards": 1790,
      "print": 1791,
      "Ġ17": 1792,
      "aces": 1793,
      "ĠâĢ¢": 1794,
      "''": 1795,
      "Ġunt": 1796,
      "ero": 1797,
      "ĠInd": 1798,
      "To": 1799,
      "Ġequal": 1800,
      "utes": 1801,
      "ule": 1802,
      "ries": 1803,
      "Ġca": 1804,
      "ently": 1805,
      "ĠPl": 1806,
      "Ġfre": 1807,
      "ĠOr": 1808,
      "Ġincluding": 1809,
      "Ġpath": 1810,
      "tr": 1811,
      "....": 1812,
      "ĠBe": 1813,
      "Ġknown": 1814,
      "Ġwon": 1815,
      "Ġphys": 1816,
      "amp": 1817,
      "Ġgovern": 1818,
      "Ġproblems": 1819,
      "Ġenviron": 1820,
      "ane": 1821,
      "Ġbecome": 1822,
      "ior": 1823,
      "Ġabove": 1824,
      "Ġcost": 1825,
      "comm": 1826,
      "Ġagainst": 1827,
      "Ġmaking": 1828,
      "ĠSc": 1829,
      "Ġcrit": 1830,
      "Ġhard": 1831,
      "ither": 1832,
      "Ġhy": 1833,
      "bal": 1834,
      "hemat": 1835,
      "Ġinit": 1836,
      "Ġlength": 1837,
      "reen": 1838,
      "ĠHowever": 1839,
      "Ġsure": 1840,
      "ĠQu": 1841,
      "sp": 1842,
      "Ġsing": 1843,
      "Ġsocial": 1844,
      "========": 1845,
      "aj": 1846,
      "As": 1847,
      "].": 1848,
      "rop": 1849,
      "iles": 1850,
      "Ġleg": 1851,
      "Ġrelations": 1852,
      "df": 1853,
      "vious": 1854,
      "=\"": 1855,
      "Ġdue": 1856,
      "Ġgive": 1857,
      "################": 1858,
      "wards": 1859,
      "ST": 1860,
      "Ġdistrib": 1861,
      "'ve": 1862,
      "Ġnever": 1863,
      "Ġdeterm": 1864,
      "ided": 1865,
      "ably": 1866,
      "ills": 1867,
      "Ġside": 1868,
      "Ġexpect": 1869,
      "Ġ100": 1870,
      "Ġresearch": 1871,
      "Ġcertain": 1872,
      "verage": 1873,
      "Ġkind": 1874,
      "ours": 1875,
      "Ġimpro": 1876,
      "sy": 1877,
      "Ġ@": 1878,
      "Ġcomput": 1879,
      "Ġgraph": 1880,
      "style": 1881,
      "ĠIm": 1882,
      "Ġcomb": 1883,
      "Ġfamily": 1884,
      "opy": 1885,
      "Ġbig": 1886,
      "lement": 1887,
      "Ġens": 1888,
      "Ġpotential": 1889,
      "Ġdiscuss": 1890,
      "Se": 1891,
      "med": 1892,
      "Ġlight": 1893,
      "orn": 1894,
      "Ġland": 1895,
      "Ġinf": 1896,
      "Ġpresent": 1897,
      "Ġfocus": 1898,
      "ients": 1899,
      "Ġtreat": 1900,
      "inary": 1901,
      "uture": 1902,
      "urther": 1903,
      "Ġflo": 1904,
      "oms": 1905,
      "OR": 1906,
      "Ġ13": 1907,
      "Ġstruct": 1908,
      "arc": 1909,
      "Ġtotal": 1910,
      "Ġparticular": 1911,
      "Ġview": 1912,
      "Ġalong": 1913,
      "lish": 1914,
      "'ll": 1915,
      "len": 1916,
      "Ġsize": 1917,
      "aper": 1918,
      "âĢĵ": 1919,
      "oney": 1920,
      "Ġeduc": 1921,
      "Ġcourse": 1922,
      "ring": 1923,
      "aring": 1924,
      "Ġet": 1925,
      "âĪĴ": 1926,
      "ream": 1927,
      "Ġlen": 1928,
      "aps": 1929,
      "Ġsever": 1930,
      "Ġspace": 1931,
      "ery": 1932,
      "Ġmaterial": 1933,
      "ending": 1934,
      "ĠĠĠĠĠĠĠĠĠĠĠĠĠĠĠĠĠĠĠĠĠĠĠ": 1935,
      "Error": 1936,
      "Ġoutput": 1937,
      "Ġask": 1938,
      "__(": 1939,
      "AR": 1940,
      "://": 1941,
      "24": 1942,
      "Ġmass": 1943,
      "ĠZ": 1944,
      "Ġuntil": 1945,
      "Ġquestions": 1946,
      "qrt": 1947,
      "display": 1948,
      "Ġbusiness": 1949,
      "Ġris": 1950,
      "face": 1951,
      "Ġable": 1952,
      "Ġsolution": 1953,
      "Ġinvest": 1954,
      "Ġassert": 1955,
      "word": 1956,
      "Ġwords": 1957,
      "ived": 1958,
      "imate": 1959,
      "key": 1960,
      "You": 1961,
      "igure": 1962,
      "uthor": 1963,
      "Ġpri": 1964,
      "Ġunit": 1965,
      "Ġspecific": 1966,
      "Ġmakes": 1967,
      "Ġfree": 1968,
      "True": 1969,
      "ĠÂ": 1970,
      "ĠTrue": 1971,
      "idence": 1972,
      "date": 1973,
      "Ġtell": 1974,
      "So": 1975,
      "ope": 1976,
      "wh": 1977,
      "Ġlangu": 1978,
      "Ġimage": 1979,
      "Ġintegr": 1980,
      "Ġmeasure": 1981,
      "ental": 1982,
      "Ġsignificant": 1983,
      "Ġax": 1984,
      "Ġsuccess": 1985,
      "agn": 1986,
      "Ġfour": 1987,
      "sel": 1988,
      "Ġcheck": 1989,
      "Ġunderstanding": 1990,
      "man": 1991,
      "ula": 1992,
      "place": 1993,
      "atures": 1994,
      "hers": 1995,
      "osed": 1996,
      "Ġconcept": 1997,
      "ole": 1998,
      "son": 1999,
      "Ġpred": 2000,
      "ĠEng": 2001,
      "Ġacross": 2002,
      "Ġprogram": 2003,
      "Ġsomeone": 2004,
      "sum": 2005,
      "Ġgot": 2006,
      "Ġdirect": 2007,
      "ĠWor": 2008,
      "How": 2009,
      "Ġhaving": 2010,
      "Ġaccess": 2011,
      "orts": 2012,
      "Ġappe": 2013,
      "Ġcr": 2014,
      "oft": 2015,
      "fic": 2016,
      "Ġdat": 2017,
      "Ġlarge": 2018,
      "max": 2019,
      "ium": 2020,
      "Ġseveral": 2021,
      "ĠPh": 2022,
      "ooking": 2023,
      "ilities": 2024,
      "ording": 2025,
      "aster": 2026,
      "23": 2027,
      "Ġgen": 2028,
      "Ġsimple": 2029,
      "Ġ30": 2030,
      "Ġbook": 2031,
      "rad": 2032,
      "Ġamong": 2033,
      "ĠSp": 2034,
      "Ġexist": 2035,
      "Now": 2036,
      "my": 2037,
      "Ġinfl": 2038,
      "ww": 2039,
      "Ġneg": 2040,
      "ÂłÂłÂłÂłÂłÂłÂłÂł": 2041,
      "Ġenough": 2042,
      "load": 2043,
      "Ġhistory": 2044,
      "uro": 2045,
      "arr": 2046,
      "Ġthing": 2047,
      "ik": 2048,
      "Ġcode": 2049,
      "oid": 2050,
      "Ġtoday": 2051,
      "tep": 2052,
      "Ġcontrol": 2053,
      "Ġever": 2054,
      "ĠĠĠĠĊ": 2055,
      "100": 2056,
      "ĠOne": 2057,
      "ĠRes": 2058,
      "Ġmonth": 2059,
      "Ġlot": 2060,
      "index": 2061,
      "Ġrest": 2062,
      "ators": 2063,
      "Ġbro": 2064,
      "Ġrelationship": 2065,
      "Ġpublic": 2066,
      "Ġprovide": 2067,
      "Ġword": 2068,
      "Ġfar": 2069,
      "met": 2070,
      "Ġways": 2071,
      "Ġbene": 2072,
      "Ġtrue": 2073,
      "fficient": 2074,
      "He": 2075,
      "rist": 2076,
      "ploy": 2077,
      "Ġenvironment": 2078,
      "Ġdone": 2079,
      "ĠTe": 2080,
      "Ġ25": 2081,
      "For": 2082,
      "Ġgame": 2083,
      "agine": 2084,
      "Ġforce": 2085,
      "ounds": 2086,
      "Ġactually": 2087,
      "ored": 2088,
      "Ġterm": 2089,
      "ysis": 2090,
      "Ġes": 2091,
      "lease": 2092,
      "Ġgl": 2093,
      "Ġleast": 2094,
      "Ġcorrect": 2095,
      "60": 2096,
      "[\"": 2097,
      "Ġeconom": 2098,
      "Ġstory": 2099,
      "Ġspecial": 2100,
      "Ġaway": 2101,
      "Ġamount": 2102,
      "Ġrad": 2103,
      "ustom": 2104,
      ".âĢĿ": 2105,
      "ference": 2106,
      "():": 2107,
      "ush": 2108,
      "ians": 2109,
      "essage": 2110,
      "ogn": 2111,
      "amb": 2112,
      "iting": 2113,
      "Ġmot": 2114,
      "Ġpress": 2115,
      "Ġpay": 2116,
      "Ġproject": 2117,
      "Ġtable": 2118,
      "hy": 2119,
      "arth": 2120,
      "cos": 2121,
      "Ġ+=": 2122,
      "ury": 2123,
      "\".": 2124,
      "side": 2125,
      "izing": 2126,
      "plit": 2127,
      "let": 2128,
      "Ġnet": 2129,
      "Ġdays": 2130,
      "thon": 2131,
      "ches": 2132,
      "Ġparam": 2133,
      "Con": 2134,
      "oot": 2135,
      "Ġsquare": 2136,
      "ird": 2137,
      "Ġinclude": 2138,
      "Ġ[]": 2139,
      "Ġmath": 2140,
      "ols": 2141,
      "Ġpositive": 2142,
      "iving": 2143,
      "Ġtre": 2144,
      "There": 2145,
      "=\\": 2146,
      "rm": 2147,
      "ĠAt": 2148,
      "lection": 2149,
      "Ġapplic": 2150,
      "Ġterms": 2151,
      "ude": 2152,
      "22": 2153,
      "cer": 2154,
      "ological": 2155,
      "urs": 2156,
      "Ġsimilar": 2157,
      "Ġexcept": 2158,
      "Ġrow": 2159,
      "displaystyle": 2160,
      "ĠWith": 2161,
      "Ġsays": 2162,
      "ĠLet": 2163,
      "Ġcaus": 2164,
      "Ġfac": 2165,
      "Ġrandom": 2166,
      "Ġresults": 2167,
      "33": 2168,
      "lying": 2169,
      "Ġ--": 2170,
      "atural": 2171,
      "imum": 2172,
      "40": 2173,
      "Ġfra": 2174,
      "ĠĠĠĠĠĠĠĠĠĠĠĠĠĠĠĠĠĠĠĠĠĠĠĠĠĠĠĠĠĠĠĠ": 2175,
      "Ġpercent": 2176,
      "Ġworking": 2177,
      "lim": 2178,
      "Ġsw": 2179,
      "Ġdoesn": 2180,
      "Ġmill": 2181,
      "oice": 2182,
      "ĠâĢĺ": 2183,
      "ready": 2184,
      "Ġwhether": 2185,
      "Ġbi": 2186,
      "icle": 2187,
      "inking": 2188,
      "Ġcontrib": 2189,
      "Ġlocal": 2190,
      "bra": 2191,
      "EN": 2192,
      "ĠShe": 2193,
      "ok": 2194,
      "version": 2195,
      "selves": 2196,
      "Ġfull": 2197,
      "aut": 2198,
      "Ġunique": 2199,
      "Ġaut": 2200,
      "Ġchalleng": 2201,
      "Ġrespect": 2202,
      "ĠÂłĠÂł": 2203,
      "format": 2204,
      "ditions": 2205,
      "Ġflow": 2206,
      "Ġmom": 2207,
      "ĠCan": 2208,
      "Ġsupp": 2209,
      "ges": 2210,
      "Ġdem": 2211,
      "ailable": 2212,
      "Ġthought": 2213,
      "Ġpain": 2214,
      "Ġfuture": 2215,
      "sqrt": 2216,
      "ised": 2217,
      "Ġaddition": 2218,
      "erc": 2219,
      "Ġcharacter": 2220,
      "iety": 2221,
      "inf": 2222,
      "Ġintern": 2223,
      "ES": 2224,
      "rel": 2225,
      "oh": 2226,
      "action": 2227,
      "enge": 2228,
      "âĢ¦": 2229,
      "rack": 2230,
      "Ġpie": 2231,
      "Ġwomen": 2232,
      "Ġperiod": 2233,
      "Ġcolumn": 2234,
      "ograph": 2235,
      "iversity": 2236,
      "pi": 2237,
      "fer": 2238,
      "alf": 2239,
      "Ġreason": 2240,
      "uff": 2241,
      "Ġ...": 2242,
      "inter": 2243,
      "201": 2244,
      "None": 2245,
      "Ġlik": 2246,
      "Ġpattern": 2247,
      "eters": 2248,
      "Ġlarg": 2249,
      "Ġdevelopment": 2250,
      "Ġmar": 2251,
      "bl": 2252,
      "Ġfr": 2253,
      "Ġstrateg": 2254,
      "serv": 2255,
      "Ġfun": 2256,
      "Ġshort": 2257,
      "lobal": 2258,
      "Ġhappen": 2259,
      "([": 2260,
      "Ġmoney": 2261,
      "Ġwhole": 2262,
      "Ġâ": 2263,
      "Ġcontain": 2264,
      "Ġlove": 2265,
      "Ġur": 2266,
      "Ġjob": 2267,
      "ĠAll": 2268,
      "onse": 2269,
      "Ġdoing": 2270,
      "ledge": 2271,
      "Ġwrite": 2272,
      "input": 2273,
      "Ġmind": 2274,
      "Ġtarget": 2275,
      "Ġnecess": 2276,
      "Ġfield": 2277,
      "Ġair": 2278,
      "asing": 2279,
      "Ġalready": 2280,
      "cted": 2281,
      "ÂłÂłÂł": 2282,
      "Ġpolit": 2283,
      "oin": 2284,
      "Ġlay": 2285,
      "Ġneeds": 2286,
      "Ġsingle": 2287,
      "Ġfactors": 2288,
      "(\\": 2289,
      "Ġstrong": 2290,
      "ĠÃ": 2291,
      "indow": 2292,
      "Ġgovernment": 2293,
      "ands": 2294,
      "ails": 2295,
      "Ġessential": 2296,
      "Ġsystems": 2297,
      "Ġbreak": 2298,
      "use": 2299,
      "ration": 2300,
      "Ġsuper": 2301,
      "ĠAmerican": 2302,
      "np": 2303,
      "Ġexc": 2304,
      "ĠSy": 2305,
      "Ġexperi": 2306,
      "Ġrate": 2307,
      "Ġfore": 2308,
      "Ġbit": 2309,
      "27": 2310,
      "Ġeither": 2311,
      "ging": 2312,
      "oose": 2313,
      "Ġmatrix": 2314,
      "uck": 2315,
      "return": 2316,
      "ott": 2317,
      "Ġstat": 2318,
      "Ġexperience": 2319,
      "mit": 2320,
      "Ġhig": 2321,
      "Al": 2322,
      "ĠEn": 2323,
      "ĠCol": 2324,
      "outh": 2325,
      "Ġos": 2326,
      "Ġdri": 2327,
      "Ġlow": 2328,
      "dd": 2329,
      "Ġbegin": 2330,
      "ĠFalse": 2331,
      "ĠMe": 2332,
      "resh": 2333,
      "Ġinde": 2334,
      "},": 2335,
      "Ġevent": 2336,
      "Ġrole": 2337,
      "Ġcontinu": 2338,
      "ney": 2339,
      "reg": 2340,
      "80": 2341,
      "imens": 2342,
      "AN": 2343,
      "itle": 2344,
      "ises": 2345,
      "Ġbelow": 2346,
      "alle": 2347,
      "ission": 2348,
      "pecial": 2349,
      "sin": 2350,
      "Ġdraw": 2351,
      "ID": 2352,
      "amples": 2353,
      "Ġdeg": 2354,
      "```": 2355,
      "ĠĠĠĠĠĠĠĠĊ": 2356,
      "cle": 2357,
      "ales": 2358,
      "Ġcontext": 2359,
      "most": 2360,
      "assert": 2361,
      "count": 2362,
      "Ġmen": 2363,
      "Ġactiv": 2364,
      "Ġdistance": 2365,
      "Ġexact": 2366,
      "Ġ->": 2367,
      "Ġcolor": 2368,
      "Ġremain": 2369,
      "where": 2370,
      "}{\\": 2371,
      "agement": 2372,
      "Ġonce": 2373,
      "Ġlanguage": 2374,
      "iter": 2375,
      "ĠGod": 2376,
      "ĠTr": 2377,
      "ef": 2378,
      "Ġteam": 2379,
      "omin": 2380,
      "Ġearly": 2381,
      "ype": 2382,
      "Ġey": 2383,
      "ĠFr": 2384,
      "ĠÎ": 2385,
      "Ġyoung": 2386,
      "Ġdise": 2387,
      "Ġinstead": 2388,
      "64": 2389,
      "Ġcomes": 2390,
      "Ġidea": 2391,
      "ended": 2392,
      "Ġut": 2393,
      "Ġaddress": 2394,
      "quence": 2395,
      "fully": 2396,
      "Ġdescrib": 2397,
      "Ġparent": 2398,
      "ggest": 2399,
      "Ġcy": 2400,
      "32": 2401,
      "Ġpast": 2402,
      "ips": 2403,
      "Ġfunctions": 2404,
      "Ġrather": 2405,
      "Ġseem": 2406,
      "Ġshape": 2407,
      "Ġassoci": 2408,
      "oura": 2409,
      "enc": 2410,
      "But": 2411,
      "plot": 2412,
      "che": 2413,
      "Ġrespons": 2414,
      "ilit": 2415,
      "istance": 2416,
      "Ġelements": 2417,
      "eturn": 2418,
      "Ġconc": 2419,
      "ĠThen": 2420,
      "ones": 2421,
      "aim": 2422,
      "Ġden": 2423,
      "Ġant": 2424,
      "Ġweight": 2425,
      "Ġupon": 2426,
      "omes": 2427,
      "Ġnormal": 2428,
      "Ġraise": 2429,
      "head": 2430,
      "Ġeveryone": 2431,
      "state": 2432,
      "ibility": 2433,
      "come": 2434,
      "Ġrece": 2435,
      "ajor": 2436,
      "though": 2437,
      "Ġdidn": 2438,
      ".)": 2439,
      "Ġavailable": 2440,
      "SE": 2441,
      "Ġimpact": 2442,
      "Ġweek": 2443,
      "Ġinflu": 2444,
      "aging": 2445,
      "Ġinitial": 2446,
      "oes": 2447,
      "qual": 2448,
      "Ġret": 2449,
      "Ġdoc": 2450,
      "IT": 2451,
      "ication": 2452,
      "Ġexpress": 2453,
      "Ġissues": 2454,
      "Ġyet": 2455,
      "Ġarray": 2456,
      "dir": 2457,
      "Ġposition": 2458,
      "AL": 2459,
      "Ġpy": 2460,
      "ĠNot": 2461,
      "ession": 2462,
      "da": 2463,
      "Ġaffect": 2464,
      "200": 2465,
      "Ġlater": 2466,
      "ered": 2467,
      "atives": 2468,
      "ĠMay": 2469,
      "rences": 2470,
      "Ġelif": 2471,
      "Ġtw": 2472,
      "ipp": 2473,
      "Ġsent": 2474,
      "epend": 2475,
      "icy": 2476,
      "Pro": 2477,
      "ising": 2478,
      "$.": 2479,
      "pportun": 2480,
      "asc": 2481,
      "And": 2482,
      "ware": 2483,
      "Ġsym": 2484,
      "lev": 2485,
      "Ġhouse": 2486,
      "ump": 2487,
      "Ġnatural": 2488,
      "Ġnumer": 2489,
      "illed": 2490,
      "Ġdifference": 2491,
      "Ġcommunity": 2492,
      "ditional": 2493,
      "________": 2494,
      "Ġtemper": 2495,
      "Ġtypes": 2496,
      "ĠSome": 2497,
      "Im": 2498,
      "ires": 2499,
      "ä¸": 2500,
      "Ġblo": 2501,
      "ules": 2502,
      "Ġsitu": 2503,
      "Ġrecord": 2504,
      "ĠChrist": 2505,
      "Ġformula": 2506,
      "odes": 2507,
      "idth": 2508,
      "dict": 2509,
      "]:": 2510,
      "Ġbenef": 2511,
      "Com": 2512,
      "augh": 2513,
      "Ġstop": 2514,
      "Ġaccount": 2515,
      "roll": 2516,
      "Ġchanges": 2517,
      "Ġpractice": 2518,
      "back": 2519,
      "estion": 2520,
      "Ġloss": 2521,
      "ĠNo": 2522,
      "Ġpaper": 2523,
      "Ġheart": 2524,
      "ficult": 2525,
      "90": 2526,
      "Ġmathemat": 2527,
      "ground": 2528,
      "clusion": 2529,
      "avor": 2530,
      "Ġsuggest": 2531,
      "Ġtowards": 2532,
      "Ġago": 2533,
      "cd": 2534,
      "Ġge": 2535,
      "inci": 2536,
      "Ġbase": 2537,
      "Ġlines": 2538,
      "Ġstandard": 2539,
      "Ġcustom": 2540,
      "Ġdr": 2541,
      "Ġopportun": 2542,
      "Ġoriginal": 2543,
      "anks": 2544,
      "Ġtechnology": 2545,
      "II": 2546,
      "att": 2547,
      "Ġhours": 2548,
      "ina": 2549,
      "gor": 2550,
      "Ġmajor": 2551,
      "Ġabs": 2552,
      "Ġexplore": 2553,
      "21": 2554,
      "75": 2555,
      "ores": 2556,
      "stit": 2557,
      "Ġselect": 2558,
      "aken": 2559,
      "ĠĠĠĠĠĠĠĠĠĠĠĠ": 2560,
      "iding": 2561,
      "Ġill": 2562,
      "Ġuser": 2563,
      "fig": 2564,
      "Ġgroups": 2565,
      "Ġjour": 2566,
      "fort": 2567,
      "Ġerror": 2568,
      "Ġexplain": 2569,
      "Ġwritten": 2570,
      "Ġcontinue": 2571,
      "((": 2572,
      "Ġquick": 2573,
      "LE": 2574,
      "elling": 2575,
      "oman": 2576,
      "Ġskills": 2577,
      "Ġcut": 2578,
      "Ġneeded": 2579,
      "Ġeff": 2580,
      "iet": 2581,
      "Ġopp": 2582,
      "ler": 2583,
      "Ġrequired": 2584,
      "model": 2585,
      "Ġsat": 2586,
      "arl": 2587,
      "Ġbehav": 2588,
      "ĠStud": 2589,
      "Ġgeneral": 2590,
      "Ġdeep": 2591,
      "ification": 2592,
      ")=": 2593,
      "ike": 2594,
      "ounter": 2595,
      "ĠPr": 2596,
      "Ġ50": 2597,
      "Ġinstance": 2598,
      "Ġcountry": 2599,
      "ttp": 2600,
      "rams": 2601,
      "ĠPar": 2602,
      "Ġaction": 2603,
      "resp": 2604,
      "gorith": 2605,
      "ĠNow": 2606,
      "34": 2607,
      "Ġ24": 2608,
      "acy": 2609,
      "Let": 2610,
      "chie": 2611,
      "Ġmusic": 2612,
      "Ġisn": 2613,
      "Ġprice": 2614,
      "ken": 2615,
      "mp": 2616,
      "point": 2617,
      "Ġonline": 2618,
      "une": 2619,
      "Ġemb": 2620,
      "Ġprobability": 2621,
      "Ġfurther": 2622,
      "Ġemploy": 2623,
      "70": 2624,
      "iven": 2625,
      "uments": 2626,
      "Ġknowledge": 2627,
      "Ġsolve": 2628,
      "cont": 2629,
      "ls": 2630,
      "Ġver": 2631,
      "Ġindividuals": 2632,
      "Ġprim": 2633,
      "anced": 2634,
      "Ġcannot": 2635,
      "\"]": 2636,
      "Ġsimply": 2637,
      "Ġ}": 2638,
      "icro": 2639,
      ".__": 2640,
      "iation": 2641,
      "joy": 2642,
      "Ġaverage": 2643,
      "Ġbound": 2644,
      "Ġconditions": 2645,
      "ĠSol": 2646,
      "fil": 2647,
      "ties": 2648,
      "Ġmaintain": 2649,
      "Ġmarket": 2650,
      "RE": 2651,
      "ey": 2652,
      "itude": 2653,
      "0000": 2654,
      "Ġscient": 2655,
      ");": 2656,
      "way": 2657,
      "Ġrot": 2658,
      "Ġresources": 2659,
      "orical": 2660,
      "Ġstring": 2661,
      "Ġïĥ": 2662,
      "Ġfund": 2663,
      "Ġdistribution": 2664,
      "plied": 2665,
      "iques": 2666,
      "Ġconstant": 2667,
      "Ġparts": 2668,
      "Ġfriends": 2669,
      "ends": 2670,
      "shape": 2671,
      "bb": 2672,
      "opt": 2673,
      "AC": 2674,
      "gs": 2675,
      "atter": 2676,
      "ift": 2677,
      "Ġshare": 2678,
      "ml": 2679,
      "rong": 2680,
      "wise": 2681,
      "ox": 2682,
      "Ġrequire": 2683,
      "When": 2684,
      "Ġregard": 2685,
      "28": 2686,
      "start": 2687,
      "sing": 2688,
      "inst": 2689,
      "range": 2690,
      "Ġsense": 2691,
      "Ġmeet": 2692,
      "Ġreport": 2693,
      "ils": 2694,
      "ption": 2695,
      "Ġprevious": 2696,
      "Ġball": 2697,
      "istics": 2698,
      "Ġdifficult": 2699,
      "values": 2700,
      "Ġhalf": 2701,
      "ze": 2702,
      "Ġage": 2703,
      "Ġetc": 2704,
      "Ġapproach": 2705,
      "Ġsample": 2706,
      "ordin": 2707,
      "Ġareas": 2708,
      "acks": 2709,
      "Ġmultiple": 2710,
      "Ġspeed": 2711,
      "Ġseries": 2712,
      "leep": 2713,
      "ĠUS": 2714,
      "overed": 2715,
      "26": 2716,
      "Ġobserv": 2717,
      "Ġpopulation": 2718,
      "Ġteac": 2719,
      "Ġwar": 2720,
      "Ġquant": 2721,
      "Ġremember": 2722,
      "Ġsource": 2723,
      "âĢľ": 2724,
      "Ġsomet": 2725,
      "Ġcause": 2726,
      "ilt": 2727,
      "Ġangle": 2728,
      "cs": 2729,
      "map": 2730,
      "ites": 2731,
      "ival": 2732,
      "Ġseen": 2733,
      "Ġliter": 2734,
      "Ġcalculate": 2735,
      ")^": 2736,
      "Ġgetting": 2737,
      "aling": 2738,
      "Ġpersonal": 2739,
      "osp": 2740,
      "[:": 2741,
      "gebra": 2742,
      "Ġthroughout": 2743,
      "aves": 2744,
      "Ġeducation": 2745,
      "Ġfrequ": 2746,
      "Ġaspect": 2747,
      "urope": 2748,
      "ĠUniversity": 2749,
      "Ġelement": 2750,
      "aries": 2751,
      "Ġminutes": 2752,
      "ĠBl": 2753,
      "Ġwriting": 2754,
      "roup": 2755,
      "Ġclos": 2756,
      "Ġcame": 2757,
      "#####": 2758,
      "af": 2759,
      "ming": 2760,
      "Ġmethods": 2761,
      "On": 2762,
      "Ġ!": 2763,
      "Ġlooking": 2764,
      "Ġfactor": 2765,
      "orth": 2766,
      "Ġtrying": 2767,
      "output": 2768,
      "****": 2769,
      "pecially": 2770,
      "no": 2771,
      "Ġred": 2772,
      "Ġtakes": 2773,
      "Ġcompon": 2774,
      "Ġmodern": 2775,
      "roduction": 2776,
      "Ġroot": 2777,
      "Ġshap": 2778,
      "ĠMar": 2779,
      "ĠMy": 2780,
      "Ġentire": 2781,
      "Ġachie": 2782,
      "ĠSu": 2783,
      "Ġdeb": 2784,
      "node": 2785,
      "Ġanything": 2786,
      "Ġvariable": 2787,
      "ĠMath": 2788,
      "Ġclear": 2789,
      "AM": 2790,
      "Ġste": 2791,
      "omial": 2792,
      "Ġnature": 2793,
      "Ġhigher": 2794,
      "Ġlower": 2795,
      "Ġsometimes": 2796,
      "ext": 2797,
      "imals": 2798,
      "Ġeasy": 2799,
      "Ġfall": 2800,
      "Ġanalysis": 2801,
      "ideo": 2802,
      "Ġeverything": 2803,
      ">>": 2804,
      "ags": 2805,
      "Ġhelps": 2806,
      "enn": 2807,
      "Ġsurface": 2808,
      "Ġglobal": 2809,
      "ohn": 2810,
      "Ġder": 2811,
      "Ġstarted": 2812,
      "Ġimprove": 2813,
      "ait": 2814,
      "apt": 2815,
      "Ġenjoy": 2816,
      "Ġindic": 2817,
      "$\\": 2818,
      "Ġsoft": 2819,
      "Ġbelieve": 2820,
      "Wh": 2821,
      "Ġauthor": 2822,
      "Ġ{}": 2823,
      "Ġce": 2824,
      "ĠAss": 2825,
      "Ġindust": 2826,
      "Ġrecogn": 2827,
      "Ġcreated": 2828,
      "Ġcompany": 2829,
      "Ġsubject": 2830,
      "Ġnegative": 2831,
      "su": 2832,
      "Ġphot": 2833,
      "Ġnode": 2834,
      "Ġmatter": 2835,
      "begin": 2836,
      "Ġsens": 2837,
      "Ġusually": 2838,
      "ĠUnited": 2839,
      "Ġyourself": 2840,
      "iddle": 2841,
      "etic": 2842,
      "loc": 2843,
      "sub": 2844,
      "ription": 2845,
      "Ġindex": 2846,
      "ius": 2847,
      "Ġrisk": 2848,
      "ĠEurope": 2849,
      "ename": 2850,
      "pper": 2851,
      "Ġthemselves": 2852,
      "Ġgreater": 2853,
      "comp": 2854,
      "Ġlevels": 2855,
      "raft": 2856,
      "Ġregular": 2857,
      "AS": 2858,
      "Ġimplement": 2859,
      "ambda": 2860,
      "Ġsides": 2861,
      "Ġtaking": 2862,
      "Ġitself": 2863,
      "Ġground": 2864,
      "ĠDis": 2865,
      "Ġbox": 2866,
      "Ġallows": 2867,
      "pri": 2868,
      "Ġframe": 2869,
      "ĠPol": 2870,
      "pha": 2871,
      "Ġemot": 2872,
      "35": 2873,
      "36": 2874,
      "Ġhol": 2875,
      "One": 2876,
      "ĠPer": 2877,
      "Ġpict": 2878,
      "'.": 2879,
      "Ġones": 2880,
      "ruction": 2881,
      "Ġlinear": 2882,
      "Ġmeaning": 2883,
      "45": 2884,
      "Ġlives": 2885,
      "ĠGe": 2886,
      "sych": 2887,
      "ender": 2888,
      "Ġcity": 2889,
      "Qu": 2890,
      "yp": 2891,
      ",âĢĿ": 2892,
      "aching": 2893,
      "Ġscience": 2894,
      "Ġblack": 2895,
      "align": 2896,
      "ĠFind": 2897,
      "ison": 2898,
      "Ġmiss": 2899,
      "Ġstructure": 2900,
      "Ġblood": 2901,
      ")$": 2902,
      "ew": 2903,
      "like": 2904,
      ")/": 2905,
      "inition": 2906,
      "Ġshows": 2907,
      "object": 2908,
      "False": 2909,
      "inally": 2910,
      "gen": 2911,
      "ï¼": 2912,
      "ĠMan": 2913,
      "ched": 2914,
      "Ġgrowth": 2915,
      "Ġmoment": 2916,
      "Ġvector": 2917,
      "Ġlive": 2918,
      "otal": 2919,
      "matrix": 2920,
      "Ġthinking": 2921,
      "Ġreading": 2922,
      "Ġlikely": 2923,
      "Ġrelig": 2924,
      "rap": 2925,
      "ym": 2926,
      "Ġcollect": 2927,
      "Ġestab": 2928,
      "Ġzero": 2929,
      "Ġload": 2930,
      "astic": 2931,
      "Ġinside": 2932,
      "Ġq": 2933,
      "Ġequations": 2934,
      "Ġnear": 2935,
      "ĠYour": 2936,
      "order": 2937,
      "Ġmembers": 2938,
      "Ġexactly": 2939,
      "Ġpressure": 2940,
      "Ġunits": 2941,
      "ops": 2942,
      "go": 2943,
      "ĠInt": 2944,
      "ĠMat": 2945,
      "oph": 2946,
      "Ġphysical": 2947,
      "uted": 2948,
      "ĠNum": 2949,
      "hing": 2950,
      "aches": 2951,
      "eration": 2952,
      "Ġmor": 2953,
      "ĠPre": 2954,
      "DE": 2955,
      "Ġstories": 2956,
      "Ġpopular": 2957,
      "Ġincrease": 2958,
      "Ġsort": 2959,
      "ctors": 2960,
      "Ġdest": 2961,
      "Ġensure": 2962,
      "Ġtal": 2963,
      "Ġfive": 2964,
      "valid": 2965,
      "part": 2966,
      "ĠVal": 2967,
      "48": 2968,
      "Ġhor": 2969,
      "ĠChe": 2970,
      "amed": 2971,
      "Ġcases": 2972,
      "Ġ?": 2973,
      "ensity": 2974,
      "Ġprevent": 2975,
      "Ġchallenges": 2976,
      "reci": 2977,
      "--------------------------------": 2978,
      "29": 2979,
      "esc": 2980,
      "iol": 2981,
      "Ġpage": 2982,
      "Ġbad": 2983,
      "Ġ40": 2984,
      "Ġevents": 2985,
      "Ġfamil": 2986,
      "Ġanaly": 2987,
      "lex": 2988,
      "Ġeval": 2989,
      "Ġ``": 2990,
      "Ġoccur": 2991,
      "Ġsteps": 2992,
      "Ġitem": 2993,
      "Ġhowever": 2994,
      "66": 2995,
      "Cl": 2996,
      "dat": 2997,
      "pose": 2998,
      "Ġresponse": 2999,
      "Ġexpected": 3000,
      "bit": 3001,
      "Step": 3002,
      "Ġconcern": 3003,
      "Ġwrong": 3004,
      "mbol": 3005,
      "step": 3006,
      "Ġliving": 3007,
      "Ġquite": 3008,
      "ĠStates": 3009,
      "Ġbring": 3010,
      "Ġfigure": 3011,
      "Ġinn": 3012,
      "ĠReturn": 3013,
      "Ġface": 3014,
      "Ġespecially": 3015,
      "Ġassociated": 3016,
      "TI": 3017,
      "Ġclaim": 3018,
      "Ġhold": 3019,
      "ĠRep": 3020,
      "ĠâĢĶ": 3021,
      "Ġtransform": 3022,
      "ĠAfter": 3023,
      "Ġbal": 3024,
      "Ġmach": 3025,
      "Ġcolle": 3026,
      "Ġsociety": 3027,
      "Ġ\\\\": 3028,
      "org": 3029,
      "Ġprobably": 3030,
      "Ġpredict": 3031,
      "light": 3032,
      "Ġsepar": 3033,
      "Ġlimit": 3034,
      "code": 3035,
      "Ġquality": 3036,
      "Ġnecessary": 3037,
      "Ġdisease": 3038,
      "orch": 3039,
      "ixed": 3040,
      "Ġcritical": 3041,
      "Ġcross": 3042,
      "ĠCent": 3043,
      "ĠCont": 3044,
      "Ġgain": 3045,
      "Ġtook": 3046,
      "fact": 3047,
      "ged": 3048,
      "Ġfail": 3049,
      "plies": 3050,
      "())": 3051,
      "Ġdivid": 3052,
      "Ġbuilding": 3053,
      "Ġ\\$": 3054,
      "nderstand": 3055,
      "'d": 3056,
      "with": 3057,
      "Ġbooks": 3058,
      "Ġfinal": 3059,
      "ĠPart": 3060,
      "itch": 3061,
      "ĠSim": 3062,
      "reng": 3063,
      "ĠGu": 3064,
      "Ġsolutions": 3065,
      "Ġtravel": 3066,
      "ii": 3067,
      "imately": 3068,
      "ĠJust": 3069,
      "Ġperformance": 3070,
      "Ġport": 3071,
      "Ġbeaut": 3072,
      "eb": 3073,
      "chan": 3074,
      "Ġstates": 3075,
      "ĠMore": 3076,
      "ĠEnglish": 3077,
      "gers": 3078,
      "Ġdou": 3079,
      "Ġvariables": 3080,
      "ĠLevel": 3081,
      "Ġtaken": 3082,
      "rem": 3083,
      "ĠPy": 3084,
      "Ġid": 3085,
      "Ġdefault": 3086,
      "Ġconsum": 3087,
      "Ġdirection": 3088,
      "Ġ21": 3089,
      "Ġtalk": 3090,
      "Ġheat": 3091,
      "Ġstudent": 3092,
      "Ġproducts": 3093,
      "By": 3094,
      "pite": 3095,
      "tempt": 3096,
      "fs": 3097,
      "Ġimm": 3098,
      "Ġrights": 3099,
      "Ã©": 3100,
      "Ġbuy": 3101,
      "Ġtechniques": 3102,
      "Ġservice": 3103,
      "orem": 3104,
      "Ġappreci": 3105,
      "Ġalgorith": 3106,
      "aced": 3107,
      "rs": 3108,
      "Ġdefined": 3109,
      "Ġvalid": 3110,
      "sequ": 3111,
      "column": 3112,
      "lt": 3113,
      "ields": 3114,
      "Ġfloat": 3115,
      "})": 3116,
      "Ġfit": 3117,
      "Ġexpression": 3118,
      "Ġcreating": 3119,
      "Ġpubl": 3120,
      "Ġsex": 3121,
      "Sh": 3122,
      "ares": 3123,
      "Ġprec": 3124,
      "oration": 3125,
      "Ġla": 3126,
      "Ġextra": 3127,
      "$$\\": 3128,
      "Ġarch": 3129,
      "Ġaccording": 3130,
      "Ġpolitical": 3131,
      "Ġheight": 3132,
      "95": 3133,
      "Ġrat": 3134,
      "!!": 3135,
      "Ġdam": 3136,
      "Ġfeatures": 3137,
      "Ġclose": 3138,
      "earch": 3139,
      "Ġcontent": 3140,
      "ĠWhile": 3141,
      "curity": 3142,
      "onal": 3143,
      "Ġperfect": 3144,
      "ĠAf": 3145,
      "duct": 3146,
      "label": 3147,
      "Ġexperiences": 3148,
      "Ġcm": 3149,
      "Ġcru": 3150,
      "aged": 3151,
      "Ġevalu": 3152,
      "Ġsearch": 3153,
      "Ġcomplete": 3154,
      "Ġengine": 3155,
      "iment": 3156,
      "Ġtreatment": 3157,
      "ĠChall": 3158,
      "ork": 3159,
      "Ġplant": 3160,
      "porary": 3161,
      "Ġcells": 3162,
      "split": 3163,
      "Ġnothing": 3164,
      "plication": 3165,
      "Ġbar": 3166,
      "ĠDo": 3167,
      "nown": 3168,
      "Ġcountries": 3169,
      "Ġtraditional": 3170,
      "Ġrelated": 3171,
      "Ġpick": 3172,
      "Ġcompet": 3173,
      "Ġaccept": 3174,
      "Un": 3175,
      "Ġgoes": 3176,
      "Ġflu": 3177,
      "etime": 3178,
      "ĠGo": 3179,
      "Ġbehind": 3180,
      "Data": 3181,
      "wargs": 3182,
      "Ġpair": 3183,
      "Ġmessage": 3184,
      "Ġuses": 3185,
      "(-": 3186,
      "ulations": 3187,
      "Ġexerc": 3188,
      "Ġencoura": 3189,
      "Ġtemperature": 3190,
      "Ġactivities": 3191,
      "Ġseems": 3192,
      "rate": 3193,
      "eds": 3194,
      "Ġtree": 3195,
      "Ġdemon": 3196,
      "Ġpret": 3197,
      "Ġann": 3198,
      "Ġstay": 3199,
      "Ġplot": 3200,
      "Ġmillion": 3201,
      "Ġalmost": 3202,
      "Ġaud": 3203,
      "cel": 3204,
      "Ġobjects": 3205,
      "Ġservices": 3206,
      "Ġsound": 3207,
      "98": 3208,
      "Ġcomputer": 3209,
      "pir": 3210,
      "OM": 3211,
      "Ġwent": 3212,
      "Ġ23": 3213,
      "Ġtools": 3214,
      "ister": 3215,
      "Ġexamples": 3216,
      "Ġprotect": 3217,
      "Ġoutside": 3218,
      "Ġhope": 3219,
      "Ġbasic": 3220,
      "bin": 3221,
      "Ġindepend": 3222,
      "Ġsin": 3223,
      "}^{": 3224,
      "Ġprinci": 3225,
      "pec": 3226,
      "Ġprime": 3227,
      "Ġbrain": 3228,
      "ĠApp": 3229,
      "Ġtraining": 3230,
      "Ġgives": 3231,
      "Ġarticle": 3232,
      "ĠWell": 3233,
      "othes": 3234,
      "ured": 3235,
      "Ġ]": 3236,
      "itor": 3237,
      "Ġcenter": 3238,
      "Ġcircle": 3239,
      "ĠMed": 3240,
      "Ġaltern": 3241,
      "Ġvalu": 3242,
      "Ġoffer": 3243,
      "ĠÏ": 3244,
      "Ġstri": 3245,
      "oved": 3246,
      "Ġdetermine": 3247,
      "Ġpack": 3248,
      "rown": 3249,
      "ĠDef": 3250,
      "Ġmaterials": 3251,
      "rees": 3252,
      "Ġstreng": 3253,
      "ager": 3254,
      "Ġdog": 3255,
      "aset": 3256,
      "ception": 3257,
      "Ġparalle": 3258,
      "OT": 3259,
      "Ġideas": 3260,
      "medi": 3261,
      "more": 3262,
      "Ġ'''": 3263,
      "Ġattention": 3264,
      "ĠWorld": 3265,
      "Ġslow": 3266,
      "Ġnight": 3267,
      "ĠTest": 3268,
      "ÂłĊ": 3269,
      "Ġroom": 3270,
      "Ġasked": 3271,
      "Ġwhite": 3272,
      "ĠJohn": 3273,
      "Ġculture": 3274,
      "het": 3275,
      "Ġcos": 3276,
      "Ġconsist": 3277,
      "\\\\": 3278,
      "zz": 3279,
      "Ġtheory": 3280,
      "Ġep": 3281,
      "Ġincreasing": 3282,
      "Ġmonths": 3283,
      "Ġbecame": 3284,
      "color": 3285,
      "IC": 3286,
      "05": 3287,
      "ĠBrit": 3288,
      "ached": 3289,
      "Ġtriangle": 3290,
      "Ġidentify": 3291,
      "ding": 3292,
      "Ġvir": 3293,
      "flo": 3294,
      "mber": 3295,
      "ĠMod": 3296,
      "ening": 3297,
      "que": 3298,
      "Ġchoose": 3299,
      "Ġissue": 3300,
      "ET": 3301,
      "Ġpriv": 3302,
      "elt": 3303,
      "izes": 3304,
      "Ġparticip": 3305,
      "Ġwonder": 3306,
      "unch": 3307,
      "AB": 3308,
      "rew": 3309,
      ")(": 3310,
      "Ġsal": 3311,
      "equ": 3312,
      "Ġkids": 3313,
      "Ġmatch": 3314,
      "Col": 3315,
      "ĠCons": 3316,
      "string": 3317,
      "Ġwatch": 3318,
      "Ġitems": 3319,
      "ĠEqu": 3320,
      "lay": 3321,
      "cor": 3322,
      "Ġcondition": 3323,
      "Ġstatement": 3324,
      "ley": 3325,
      "Ġharm": 3326,
      "Ġspir": 3327,
      "trans": 3328,
      "inating": 3329,
      "Ġ!=": 3330,
      "Ġ27": 3331,
      "Res": 3332,
      "Ġintrodu": 3333,
      "Ġcapt": 3334,
      "-\\": 3335,
      "ĠCalcul": 3336,
      "Ġprovides": 3337,
      "Chapter": 3338,
      "Ġvolume": 3339,
      "37": 3340,
      "Ġvert": 3341,
      "Ġtax": 3342,
      "ynam": 3343,
      "Ġdemonstr": 3344,
      "times": 3345,
      "hood": 3346,
      "Ġfeet": 3347,
      "IS": 3348,
      "uild": 3349,
      "racy": 3350,
      "Ġfavor": 3351,
      "Ġmagn": 3352,
      "dered": 3353,
      "Ġclean": 3354,
      "atory": 3355,
      "Ġcopy": 3356,
      "arily": 3357,
      "yond": 3358,
      "Ġprovided": 3359,
      "Section": 3360,
      "Ġdocument": 3361,
      "Ġ60": 3362,
      "$,": 3363,
      "Ġpatterns": 3364,
      "aily": 3365,
      "Ġprogress": 3366,
      "Ġwin": 3367,
      "off": 3368,
      "ĠUse": 3369,
      "Ġcommunities": 3370,
      "Ġcoordin": 3371,
      "ĠÃĹ": 3372,
      "based": 3373,
      "write": 3374,
      "Ġbecomes": 3375,
      "Ġassum": 3376,
      "ried": 3377,
      "Ġenh": 3378,
      "Ġactivity": 3379,
      "Ġblock": 3380,
      "inct": 3381,
      "Ġï": 3382,
      "Ġbuilt": 3383,
      "Ġattempt": 3384,
      "Ġincor": 3385,
      "Ġdimens": 3386,
      "55": 3387,
      "Ġcal": 3388,
      "ster": 3389,
      "cles": 3390,
      "Ġdeath": 3391,
      "Ġdf": 3392,
      "Ġdom": 3393,
      "haps": 3394,
      "method": 3395,
      "{{": 3396,
      "image": 3397,
      "Ġgreen": 3398,
      "ĠAb": 3399,
      "ĠComm": 3400,
      "main": 3401,
      "join": 3402,
      "Ġbir": 3403,
      "train": 3404,
      "theta": 3405,
      "ĠWhy": 3406,
      "================": 3407,
      "Ġcultural": 3408,
      "88": 3409,
      "Ġrequest": 3410,
      "Ġhistorical": 3411,
      "Ġeffects": 3412,
      "Ġmis": 3413,
      "Ġchem": 3414,
      "level": 3415,
      "osing": 3416,
      "Ġscale": 3417,
      "OU": 3418,
      "ga": 3419,
      "mar": 3420,
      "Ġsn": 3421,
      "Ġsix": 3422,
      "ancial": 3423,
      "Ġgames": 3424,
      "</": 3425,
      "ighb": 3426,
      "Ġcou": 3427,
      "ĠRem": 3428,
      "Ġemerg": 3429,
      "actions": 3430,
      "do": 3431,
      "Ġsun": 3432,
      "ĠAct": 3433,
      "swers": 3434,
      "Ġapprox": 3435,
      "Ġmention": 3436,
      "Ġcho": 3437,
      "Ġsmo": 3438,
      "Ġcentury": 3439,
      "Ġeconomic": 3440,
      "AP": 3441,
      "result": 3442,
      "Ġlarger": 3443,
      "ocity": 3444,
      "ĠThrough": 3445,
      "Ġanimals": 3446,
      "Ġrule": 3447,
      "rench": 3448,
      "book": 3449,
      "idered": 3450,
      "mean": 3451,
      "just": 3452,
      "uel": 3453,
      "Ġdru": 3454,
      "Ġlink": 3455,
      "ynomial": 3456,
      "tra": 3457,
      "ĠPe": 3458,
      "Ġinteresting": 3459,
      "inc": 3460,
      "Ġrev": 3461,
      "Ġstru": 3462,
      "96": 3463,
      "body": 3464,
      "tes": 3465,
      "Ġsite": 3466,
      "pty": 3467,
      "Ġoptions": 3468,
      "Ġreview": 3469,
      "Ġnumpy": 3470,
      "Ġreduce": 3471,
      "arrow": 3472,
      "ension": 3473,
      "inks": 3474,
      "Ġplants": 3475,
      "anation": 3476,
      "ĠFirst": 3477,
      "iful": 3478,
      "Ġlabel": 3479,
      "ĠChallenge": 3480,
      "HE": 3481,
      "icles": 3482,
      "Ġgas": 3483,
      "Ġstra": 3484,
      "Ġvideo": 3485,
      "Ġcontains": 3486,
      "Ġinteger": 3487,
      "ĠAmerica": 3488,
      "Ġevidence": 3489,
      "Ġproduction": 3490,
      "oding": 3491,
      "Ġability": 3492,
      "Ġspecies": 3493,
      ".\"\"\"": 3494,
      "Ġsequence": 3495,
      "?\"": 3496,
      "fit": 3497,
      "oon": 3498,
      "ĠHist": 3499,
      "Ġobtain": 3500,
      "Ġwanted": 3501,
      "ometry": 3502,
      "ĠâĪ": 3503,
      "Ġanc": 3504,
      "Ġagree": 3505,
      "oday": 3506,
      "Ġoverall": 3507,
      "Ġsurround": 3508,
      "No": 3509,
      "ĠWar": 3510,
      "random": 3511,
      "year": 3512,
      "Ġfair": 3513,
      "ivil": 3514,
      "Ġconsidered": 3515,
      "Ġlonger": 3516,
      "ĠĠĠĠĠĠĠĠĠ": 3517,
      "Ġeffective": 3518,
      "oll": 3519,
      "ought": 3520,
      "44": 3521,
      "eta": 3522,
      "Ġdisplay": 3523,
      "ners": 3524,
      "adr": 3525,
      "iver": 3526,
      "Ġoffic": 3527,
      "OL": 3528,
      "ĠFrom": 3529,
      "Ġgets": 3530,
      "Ġtold": 3531,
      "Ġsafe": 3532,
      "Ġsympt": 3533,
      "Ġregion": 3534,
      "nderstanding": 3535,
      "Ġcat": 3536,
      "Ġfost": 3537,
      "Ġstore": 3538,
      "iply": 3539,
      "Ġappropri": 3540,
      "mathrm": 3541,
      "ED": 3542,
      "Ġpiece": 3543,
      "ese": 3544,
      "Ġinvolved": 3545,
      "Ġcharacters": 3546,
      "Ġmoving": 3547,
      "known": 3548,
      "isions": 3549,
      "Ġsave": 3550,
      "Ġwhose": 3551,
      "Ġproperty": 3552,
      "Ġchapter": 3553,
      "avig": 3554,
      "Â°": 3555,
      "Ġ22": 3556,
      "Ġshown": 3557,
      "Ġstrategies": 3558,
      "ĠĠĠĠĠĠ": 3559,
      "Ġsection": 3560,
      "Ġmedia": 3561,
      "Ġcrucial": 3562,
      "bf": 3563,
      "Ġhyp": 3564,
      "Ġfig": 3565,
      "78": 3566,
      "Ġversion": 3567,
      "ana": 3568,
      "Ġdate": 3569,
      "Ġreflect": 3570,
      "undred": 3571,
      "Ġviol": 3572,
      "ĠHere": 3573,
      "osts": 3574,
      "Ġdiag": 3575,
      "Ġfasc": 3576,
      "command": 3577,
      "ober": 3578,
      "}^": 3579,
      "Ġaim": 3580,
      "Ġcompan": 3581,
      "Ġpolicy": 3582,
      "Ġinnov": 3583,
      "Ġsaf": 3584,
      "Ġforms": 3585,
      "ĠHis": 3586,
      "och": 3587,
      "(),": 3588,
      "iar": 3589,
      "Ġcorresp": 3590,
      "Ġparents": 3591,
      "Ġvel": 3592,
      "ĠMon": 3593,
      "Ġconnect": 3594,
      "length": 3595,
      "Ġtim": 3596,
      "Ġleading": 3597,
      "Ġrules": 3598,
      "Ġroll": 3599,
      "Ġdra": 3600,
      "Ġmechan": 3601,
      "ube": 3602,
      "Ġworkshe": 3603,
      "Here": 3604,
      "ai": 3605,
      "bar": 3606,
      "ache": 3607,
      "Ġpractices": 3608,
      "Ġsleep": 3609,
      "Ġappear": 3610,
      "Ġcard": 3611,
      "ĠEarth": 3612,
      "76": 3613,
      "function": 3614,
      "ĠAfric": 3615,
      ")]": 3616,
      "user": 3617,
      "Ġfraction": 3618,
      "ĠInst": 3619,
      "Ġgir": 3620,
      "Ġdeal": 3621,
      "Ġproperties": 3622,
      "ĠTrans": 3623,
      "ping": 3624,
      "Ġfeature": 3625,
      "pred": 3626,
      "ellow": 3627,
      "Ġpretty": 3628,
      "Ġtas": 3629,
      "ĠAm": 3630,
      "Ġthird": 3631,
      "ret": 3632,
      "Ġwindow": 3633,
      "Ġconfig": 3634,
      "number": 3635,
      "ĠReturns": 3636,
      "::": 3637,
      "idden": 3638,
      "à¥": 3639,
      "Ġrect": 3640,
      "Ġavoid": 3641,
      "illing": 3642,
      "exp": 3643,
      "Ġmedical": 3644,
      "Ġbenefits": 3645,
      "Ġpsych": 3646,
      "Ġfoot": 3647,
      "ĠAN": 3648,
      "Ġprofess": 3649,
      "box": 3650,
      "Ġbehavior": 3651,
      "ĠInte": 3652,
      "apping": 3653,
      "Ġestim": 3654,
      "down": 3655,
      "Ġheav": 3656,
      "izations": 3657,
      "Ġlocation": 3658,
      "hol": 3659,
      "rig": 3660,
      "Ġexploring": 3661,
      "tings": 3662,
      "ĠAust": 3663,
      "ourse": 3664,
      "Ġproduce": 3665,
      "Ġ{\\": 3666,
      "names": 3667,
      "Ġhttp": 3668,
      "ĠOct": 3669,
      "info": 3670,
      "elta": 3671,
      "Ġcool": 3672,
      "Ġcred": 3673,
      "oad": 3674,
      "Ġprep": 3675,
      "Ġincreased": 3676,
      "Ġresearc": 3677,
      "Ġbeyond": 3678,
      "ĠAre": 3679,
      "works": 3680,
      "isf": 3681,
      "rote": 3682,
      "Ġvisual": 3683,
      "cdot": 3684,
      "target": 3685,
      "urch": 3686,
      "Ġ('": 3687,
      "Ġanyone": 3688,
      "38": 3689,
      "anc": 3690,
      "nal": 3691,
      "Ġsong": 3692,
      "Ġfeed": 3693,
      "Ġrequires": 3694,
      "Ġbott": 3695,
      "ĠII": 3696,
      "umb": 3697,
      "unc": 3698,
      "ously": 3699,
      "anger": 3700,
      "Ġmag": 3701,
      "ĠJan": 3702,
      "Ġeasily": 3703,
      "56": 3704,
      "Ġactual": 3705,
      "Ġfiles": 3706,
      "Ġquickly": 3707,
      "Ġvaluable": 3708,
      "dom": 3709,
      "Ġstress": 3710,
      "Ġforward": 3711,
      "ĠSet": 3712,
      "ĠOb": 3713,
      "Ġcateg": 3714,
      "temporary": 3715,
      "Ġnetwork": 3716,
      "cret": 3717,
      "Ġformat": 3718,
      "url": 3719,
      "Ġrelationships": 3720,
      "Ġwall": 3721,
      "Ġmicro": 3722,
      "Ġsimpl": 3723,
      "pol": 3724,
      "iff": 3725,
      "Ġmanagement": 3726,
      "Ġuseful": 3727,
      "Ġadded": 3728,
      "NA": 3729,
      "Ġ26": 3730,
      "Ar": 3731,
      "Ġ28": 3732,
      "Ġopportunities": 3733,
      "ĠDes": 3734,
      "Ġplt": 3735,
      "Ġfront": 3736,
      "At": 3737,
      "tml": 3738,
      "âĶ": 3739,
      "Ġapply": 3740,
      "Ġaxis": 3741,
      "www": 3742,
      "uge": 3743,
      "imin": 3744,
      "Ġthous": 3745,
      "resents": 3746,
      "ternal": 3747,
      "requ": 3748,
      "ĠSub": 3749,
      "ocks": 3750,
      "conds": 3751,
      "ensor": 3752,
      "ĠAcc": 3753,
      "ĠGet": 3754,
      "float": 3755,
      "Ġpow": 3756,
      "pped": 3757,
      "ev": 3758,
      "gment": 3759,
      "Ġnote": 3760,
      "Ġsubst": 3761,
      "Ġsoftware": 3762,
      "Ġri": 3763,
      "Ġrefer": 3764,
      "Ġapplications": 3765,
      "ãģ": 3766,
      "ĠTra": 3767,
      "Ġjourney": 3768,
      "eral": 3769,
      "---": 3770,
      "ĠâĪĴ": 3771,
      "Ġreach": 3772,
      "Ġperspect": 3773,
      "aid": 3774,
      "Ġbegan": 3775,
      "Ġ2013": 3776,
      "Ġir": 3777,
      "Ġscen": 3778,
      "ttps": 3779,
      "board": 3780,
      "pat": 3781,
      "ĠEach": 3782,
      "Ġcover": 3783,
      "Ġwebs": 3784,
      "Ġplaces": 3785,
      "ĠState": 3786,
      "position": 3787,
      "Be": 3788,
      "Ġdu": 3789,
      "Ġmodels": 3790,
      "Ġpowerful": 3791,
      "Ġsymptoms": 3792,
      "conne": 3793,
      "ologies": 3794,
      "Ġdecision": 3795,
      "ĠDec": 3796,
      "Ġprograms": 3797,
      "################################": 3798,
      "Ġnut": 3799,
      "ĠReg": 3800,
      "Ġmemory": 3801,
      "Ġtrain": 3802,
      "ung": 3803,
      "Ġparticularly": 3804,
      "eks": 3805,
      "Ġhundred": 3806,
      "uration": 3807,
      "Ġcomplet": 3808,
      "Ġmaximum": 3809,
      "ĠSystem": 3810,
      "Ġaspects": 3811,
      "Ġcamp": 3812,
      "aly": 3813,
      "ĠInter": 3814,
      "Sc": 3815,
      "Ġconstruct": 3816,
      "erve": 3817,
      "Ġreve": 3818,
      "Ġsaw": 3819,
      "Ġnames": 3820,
      "lambda": 3821,
      "ĠSince": 3822,
      "adem": 3823,
      "Ġinterpre": 3824,
      "Ġmaybe": 3825,
      "47": 3826,
      "Ġsmaller": 3827,
      "Ġachieve": 3828,
      "error": 3829,
      "Ġdict": 3830,
      "stain": 3831,
      "().": 3832,
      "Ġsituation": 3833,
      "item": 3834,
      "leg": 3835,
      "Ġbackground": 3836,
      "Ġfinancial": 3837,
      "abilities": 3838,
      "Ġcollab": 3839,
      "Ġpoor": 3840,
      "'),": 3841,
      "Ġful": 3842,
      "Ġexec": 3843,
      "Ġchoice": 3844,
      "acter": 3845,
      "ha": 3846,
      "used": 3847,
      "Ġcommunication": 3848,
      "cm": 3849,
      "ecause": 3850,
      "Ġpromot": 3851,
      "Ġoil": 3852,
      "Ġroad": 3853,
      "Ġcommit": 3854,
      "Ġneighb": 3855,
      "Ġhands": 3856,
      "Ġstudies": 3857,
      "Ġeyes": 3858,
      "Ġsch": 3859,
      "Ġtransl": 3860,
      ")\\": 3861,
      "ishing": 3862,
      "MAT": 3863,
      "Ġfire": 3864,
      "itect": 3865,
      "aff": 3866,
      "Ġtask": 3867,
      "Ġrecent": 3868,
      "ucle": 3869,
      "erate": 3870,
      "Ġfast": 3871,
      "Ġmap": 3872,
      "ĠAug": 3873,
      "Ġaccom": 3874,
      "ios": 3875,
      "Ġmental": 3876,
      "Ġautom": 3877,
      "igma": 3878,
      "tered": 3879,
      "Ġrepresents": 3880,
      "Ġ###": 3881,
      "Ġscore": 3882,
      "Ġheard": 3883,
      "Ġhealthy": 3884,
      "Ġelectric": 3885,
      "Ġprior": 3886,
      "ĠSep": 3887,
      "ĠExpl": 3888,
      "rand": 3889,
      "Ġrac": 3890,
      "change": 3891,
      "Ġsurv": 3892,
      "Ġedge": 3893,
      "Ġinvestig": 3894,
      "Ġstrugg": 3895,
      "mark": 3896,
      "Ġtorch": 3897,
      "atively": 3898,
      "enced": 3899,
      "table": 3900,
      "Ġefforts": 3901,
      "Ph": 3902,
      "97": 3903,
      "Ġaff": 3904,
      "abase": 3905,
      "Ġrunning": 3906,
      ")+": 3907,
      "Ġfat": 3908,
      "ĠFrench": 3909,
      "Ġworth": 3910,
      "Ġimportance": 3911,
      "Ġbroad": 3912,
      "bre": 3913,
      "ulate": 3914,
      "Ġessay": 3915,
      "Ġimages": 3916,
      "oined": 3917,
      "Ġnamed": 3918,
      "ĠValue": 3919,
      "mm": 3920,
      "Ġeat": 3921,
      "sec": 3922,
      "Ġimagine": 3923,
      "xy": 3924,
      "iny": 3925,
      "ancy": 3926,
      "ĠArt": 3927,
      "Ġforces": 3928,
      "Ġpoly": 3929,
      "Is": 3930,
      "Ġthus": 3931,
      "amer": 3932,
      "Ġinterval": 3933,
      "Ġlearned": 3934,
      "levant": 3935,
      "*}": 3936,
      "run": 3937,
      "oe": 3938,
      "Ġdiverse": 3939,
      "ĠFl": 3940,
      "Ġspread": 3941,
      "Ġidentity": 3942,
      "ING": 3943,
      "txt": 3944,
      "uit": 3945,
      "Ġdesigned": 3946,
      "Ġcomment": 3947,
      "ĠOf": 3948,
      "Ġfinding": 3949,
      "Ġvelocity": 3950,
      "=(": 3951,
      "ĠIntern": 3952,
      "Ġdigits": 3953,
      "igen": 3954,
      "osite": 3955,
      "Ġnovel": 3956,
      "Ġaccel": 3957,
      "Ġassign": 3958,
      "Ġstraight": 3959,
      "Ġwarm": 3960,
      "Ġwrote": 3961,
      "Ġtru": 3962,
      "elcome": 3963,
      "Ġund": 3964,
      "config": 3965,
      "Le": 3966,
      "rast": 3967,
      "Ġleave": 3968,
      "Ġfollows": 3969,
      "atform": 3970,
      "oud": 3971,
      "duc": 3972,
      "ensive": 3973,
      "plications": 3974,
      "ĠClass": 3975,
      "ðĿ": 3976,
      "Ġapplication": 3977,
      "frame": 3978,
      "ux": 3979,
      "icate": 3980,
      "ship": 3981,
      "Ġprocesses": 3982,
      "Ġplane": 3983,
      "instance": 3984,
      "Ġtrack": 3985,
      "Ġinvolves": 3986,
      "irm": 3987,
      "sol": 3988,
      "zer": 3989,
      "isms": 3990,
      "room": 3991,
      "Ġsustain": 3992,
      "Ġskin": 3993,
      "Ġcit": 3994,
      "Ġbill": 3995,
      "Ġcapac": 3996,
      "Ġindustry": 3997,
      "iced": 3998,
      "Ġrepe": 3999,
      "Ġbeautiful": 4000,
      "Ġrecomm": 4001,
      "Ġcontact": 4002,
      "iam": 4003,
      "Ġoptim": 4004,
      "ny": 4005,
      "inite": 4006,
      "ancing": 4007,
      "Ġadult": 4008,
      "Ġdigit": 4009,
      "Ġdynam": 4010,
      "ĠMult": 4011,
      "Ġsoon": 4012,
      "ĠYork": 4013,
      "ditionally": 4014,
      "My": 4015,
      "Ġspirit": 4016,
      "ifically": 4017,
      "ferences": 4018,
      "Ġwasn": 4019,
      "çļ": 4020,
      "Ġpan": 4021,
      "asons": 4022,
      "Ġearth": 4023,
      "Ġdefinition": 4024,
      "Ġdepend": 4025,
      "Ġmovement": 4026,
      "Name": 4027,
      "Ġnorm": 4028,
      "ĠNational": 4029,
      "Ġsets": 4030,
      "Ġaware": 4031,
      "Ġdigital": 4032,
      "Ġoperations": 4033,
      "[:,": 4034,
      "Ġmiddle": 4035,
      "Ġtool": 4036,
      "Ġconver": 4037,
      "Ġshared": 4038,
      "Ġcommand": 4039,
      "Ġblue": 4040,
      "49": 4041,
      "Ġthreat": 4042,
      "Ġdetails": 4043,
      "çļĦ": 4044,
      "Ġnational": 4045,
      "Ġconnection": 4046,
      "ography": 4047,
      "kwargs": 4048,
      "Ġtf": 4049,
      "ĠGerm": 4050,
      "Ġstarting": 4051,
      "Ġsil": 4052,
      "Ġpd": 4053,
      "ĠApr": 4054,
      "ĠComp": 4055,
      "cal": 4056,
      "Ġdaily": 4057,
      "Ġsaying": 4058,
      "Ġdivis": 4059,
      "Ġdegree": 4060,
      "Ġeth": 4061,
      "Ġlooks": 4062,
      "Ġargument": 4063,
      "Example": 4064,
      ")*": 4065,
      "Ġtown": 4066,
      "ĠEven": 4067,
      "ĠOver": 4068,
      "blem": 4069,
      "mary": 4070,
      "}+": 4071,
      "**:": 4072,
      "comes": 4073,
      "Ġplayer": 4074,
      "List": 4075,
      "Ġpicture": 4076,
      "Ġappropriate": 4077,
      "Ġcompanies": 4078,
      "39": 4079,
      "Ġinform": 4080,
      "img": 4081,
      "Ġoffers": 4082,
      "Ġ2012": 4083,
      "Ġerr": 4084,
      "ban": 4085,
      "Ġfight": 4086,
      "flict": 4087,
      "BC": 4088,
      "That": 4089,
      "ony": 4090,
      "Ġseason": 4091,
      "axis": 4092,
      "Ġguess": 4093,
      "Ġwidth": 4094,
      "apan": 4095,
      "Ġsec": 4096,
      "46": 4097,
      "ĠStep": 4098,
      "AD": 4099,
      "call": 4100,
      "hib": 4101,
      "ĠÐ": 4102,
      "ceed": 4103,
      "Ġpolynomial": 4104,
      "Ġinfluence": 4105,
      "Ġrich": 4106,
      "ĠExample": 4107,
      "ãĢ": 4108,
      "Ġtrust": 4109,
      "Ġratio": 4110,
      "struct": 4111,
      "ĠMany": 4112,
      "Ġimmedi": 4113,
      "Ġenvironmental": 4114,
      "Ġlif": 4115,
      "ĠUsing": 4116,
      "Ġtherefore": 4117,
      "Ġpatients": 4118,
      "Ġcorrespond": 4119,
      "iber": 4120,
      "Ġhab": 4121,
      "ĠDr": 4122,
      "Ġplaying": 4123,
      "ae": 4124,
      "ords": 4125,
      "Ġmedic": 4126,
      "Ġmovie": 4127,
      "Ġfem": 4128,
      "ĠEm": 4129,
      "Ġspeak": 4130,
      "Ġconcepts": 4131,
      "OD": 4132,
      "ying": 4133,
      "Ġsources": 4134,
      "Ġround": 4135,
      "Ġhappens": 4136,
      "Ġgrowing": 4137,
      "Ġcomponents": 4138,
      "++": 4139,
      "31": 4140,
      "itable": 4141,
      "Ġleaders": 4142,
      "dx": 4143,
      "Ġaren": 4144,
      "angles": 4145,
      "Ġ36": 4146,
      "Ġlibr": 4147,
      "Ġled": 4148,
      "Ġlost": 4149,
      "Ġsecurity": 4150,
      "Ġincorpor": 4151,
      "parse": 4152,
      "ï¼Į": 4153,
      "Equal": 4154,
      "Ġcook": 4155,
      "alpha": 4156,
      "term": 4157,
      "Ġsuff": 4158,
      "izer": 4159,
      "Ġsymbol": 4160,
      "Ġincludes": 4161,
      "encies": 4162,
      "OP": 4163,
      "eper": 4164,
      "Ġlate": 4165,
      "Ġcompared": 4166,
      "Ġremains": 4167,
      "annel": 4168,
      "ä»": 4169,
      "ocr": 4170,
      "Ġsatisf": 4171,
      "Ġvia": 4172,
      "Ġdecided": 4173,
      "Ġ2010": 4174,
      "Ġcand": 4175,
      "ened": 4176,
      "Ġcounter": 4177,
      "Ġhumans": 4178,
      "Ġmess": 4179,
      "ĠData": 4180,
      "artment": 4181,
      "hens": 4182,
      "ball": 4183,
      "Ġdevice": 4184,
      "Ġwoman": 4185,
      "Ġconvert": 4186,
      "Ġdirectly": 4187,
      "Ġhot": 4188,
      "Ġregarding": 4189,
      "uple": 4190,
      "Ġbul": 4191,
      "Ġargs": 4192,
      "Ġ\\;": 4193,
      "Ġanswers": 4194,
      "ĠCal": 4195,
      "Ġdeveloped": 4196,
      "Ġboard": 4197,
      "Ġvisit": 4198,
      "58": 4199,
      "Ġdecre": 4200,
      "process": 4201,
      "ION": 4202,
      "ama": 4203,
      "ĠGree": 4204,
      "ĠâĢ¦": 4205,
      "Ġadditional": 4206,
      "Ġfascinating": 4207,
      "42": 4208,
      "Int": 4209,
      "hel": 4210,
      "Ġalone": 4211,
      "ĠLear": 4212,
      "Ġjud": 4213,
      "ped": 4214,
      "icks": 4215,
      "ĠAg": 4216,
      "Ġcoe": 4217,
      "Ġgrad": 4218,
      "Ġproviding": 4219,
      "Ġattack": 4220,
      "ronic": 4221,
      "flow": 4222,
      "ĠGener": 4223,
      "phas": 4224,
      ")))": 4225,
      "Ġsuccessful": 4226,
      "08": 4227,
      "ampl": 4228,
      "ada": 4229,
      "Ġproced": 4230,
      "ĠAdd": 4231,
      "arlier": 4232,
      "reet": 4233,
      "Ġefficient": 4234,
      "ades": 4235,
      "Ġdistinct": 4236,
      "which": 4237,
      "Ġpieces": 4238,
      "itation": 4239,
      "Ġserious": 4240,
      "Ġcosts": 4241,
      "Ġprimary": 4242,
      "From": 4243,
      "Ġdensity": 4244,
      "vere": 4245,
      "Ġgoal": 4246,
      "03": 4247,
      "lete": 4248,
      "ogle": 4249,
      "rought": 4250,
      "find": 4251,
      "ĠMc": 4252,
      "ellig": 4253,
      "Ġalgorithm": 4254,
      "Ġfear": 4255,
      "Ġsold": 4256,
      "Ġmiles": 4257,
      "EL": 4258,
      "Ġnavig": 4259,
      "rapy": 4260,
      "}_{": 4261,
      "Ġcore": 4262,
      "Ġintegers": 4263,
      "Ġdiscover": 4264,
      "csv": 4265,
      "Ġpurpose": 4266,
      "ĠDet": 4267,
      "Ġconserv": 4268,
      "Ġ2011": 4269,
      "Ġoption": 4270,
      "ĠUnderstanding": 4271,
      "Ġ2016": 4272,
      "Ġpurch": 4273,
      "Ġice": 4274,
      "Ġmilit": 4275,
      "iling": 4276,
      "Ġnews": 4277,
      "hand": 4278,
      "Ġfelt": 4279,
      "rip": 4280,
      "irect": 4281,
      "Ġgenerate": 4282,
      "Ġcompletely": 4283,
      "ino": 4284,
      "lebr": 4285,
      "ĠCor": 4286,
      "Ġdemand": 4287,
      "lib": 4288,
      "Ġwalk": 4289,
      "Ġign": 4290,
      "ifying": 4291,
      "IV": 4292,
      "Ġtou": 4293,
      "Ġhon": 4294,
      "abet": 4295,
      "aith": 4296,
      "Ġsus": 4297,
      "ĠSte": 4298,
      "ĠCre": 4299,
      "ĠOur": 4300,
      "lines": 4301,
      "Ġstyle": 4302,
      "tract": 4303,
      "Ġconv": 4304,
      "Ġdecimal": 4305,
      "Ġbottom": 4306,
      "02": 4307,
      "Val": 4308,
      "ĠList": 4309,
      "Ġfilm": 4310,
      "ĠCur": 4311,
      "Ġbalance": 4312,
      "}}{": 4313,
      "Ġord": 4314,
      "ĠWill": 4315,
      "gar": 4316,
      "rid": 4317,
      "Ġcontribute": 4318,
      "Ġresearchers": 4319,
      "odies": 4320,
      "Ġsolid": 4321,
      "bon": 4322,
      "Ġdenomin": 4323,
      "but": 4324,
      "ĠMin": 4325,
      "Ġcoming": 4326,
      "ĠJapan": 4327,
      "Ġequival": 4328,
      "Ġassess": 4329,
      "Ġfeeling": 4330,
      "Ġmeasures": 4331,
      "ee": 4332,
      "Ġwind": 4333,
      "ĠOther": 4334,
      "ĠĠĠĠĠĠĠĠĠĠĠĠĠĠĠĠĠĠĠĠĠĠĠĠĠĠĠ": 4335,
      "Ġchallenge": 4336,
      "ĠĠĠĠĠĠĠĠĠĠĠĠĠĠĠĠĠĠĠĠĠĠĠĠ": 4337,
      "Ġactive": 4338,
      "Ġ>>>": 4339,
      "Ġlaws": 4340,
      "Ġeasier": 4341,
      "Ġmotion": 4342,
      "âĶĢ": 4343,
      "'],": 4344,
      "07": 4345,
      "Ġconvers": 4346,
      "Ġdetail": 4347,
      "SS": 4348,
      "Ġvers": 4349,
      "Ġten": 4350,
      "Ġmid": 4351,
      "Ġstuff": 4352,
      "ĠDep": 4353,
      "Ġlayer": 4354,
      "04": 4355,
      "width": 4356,
      "err": 4357,
      "ĠTwo": 4358,
      "top": 4359,
      "ãĤ": 4360,
      "Ġactions": 4361,
      "Ġhour": 4362,
      "na": 4363,
      "ĠAp": 4364,
      "Ġcontemporary": 4365,
      "ĠLine": 4366,
      "lope": 4367,
      "Ġconnected": 4368,
      "current": 4369,
      "ĠTechn": 4370,
      "Ġrob": 4371,
      "Ġmachine": 4372,
      "Ġweb": 4373,
      "Ġcancer": 4374,
      "Ġapplied": 4375,
      "iers": 4376,
      "unk": 4377,
      "Ġarri": 4378,
      "Ġprinciples": 4379,
      "Cont": 4380,
      "Ġlack": 4381,
      "Ġconcent": 4382,
      "Ġhoriz": 4383,
      "til": 4384,
      "ĠAny": 4385,
      "osition": 4386,
      "Ġsche": 4387,
      "Ġsys": 4388,
      "otes": 4389,
      "Ġreturns": 4390,
      "Ġexpand": 4391,
      "Ġinstall": 4392,
      "Ġlegal": 4393,
      "gram": 4394,
      "iency": 4395,
      "mission": 4396,
      "uzz": 4397,
      "Ġhimself": 4398,
      "pen": 4399,
      "anch": 4400,
      "Ġfilled": 4401,
      "Ġmother": 4402,
      "Ġclimate": 4403,
      "Ġblog": 4404,
      "Ġdiet": 4405,
      "Ġindependent": 4406,
      "Ġcivil": 4407,
      "iring": 4408,
      "ibly": 4409,
      "With": 4410,
      "can": 4411,
      "ĠHel": 4412,
      "Ġstrength": 4413,
      "Ġlat": 4414,
      "ĠTime": 4415,
      "ĠSchool": 4416,
      "First": 4417,
      "Ġson": 4418,
      "Ġangles": 4419,
      "Ġbeginning": 4420,
      "Ġchance": 4421,
      "udd": 4422,
      "field": 4423,
      "ufact": 4424,
      "reed": 4425,
      "Ġearlier": 4426,
      "Ġplatform": 4427,
      "Ġaccur": 4428,
      "minist": 4429,
      "gon": 4430,
      "ĠNorth": 4431,
      "Question": 4432,
      "bi": 4433,
      "Ġhost": 4434,
      "Ġsafety": 4435,
      "group": 4436,
      "ament": 4437,
      "hern": 4438,
      "Ġcaused": 4439,
      "Ġmathematical": 4440,
      "Ġdecl": 4441,
      "Ġimag": 4442,
      "Ġtopic": 4443,
      "Ġreligious": 4444,
      "ĠSouth": 4445,
      "Ġallowed": 4446,
      "ned": 4447,
      "Ġswe": 4448,
      "ilos": 4449,
      "ĠDon": 4450,
      "Ġcop": 4451,
      "Ġ['": 4452,
      "Ġ90": 4453,
      "Ġguid": 4454,
      "vey": 4455,
      "ĠShow": 4456,
      "ection": 4457,
      "gy": 4458,
      "Ġinterse": 4459,
      "Ġincluded": 4460,
      "Ġhappened": 4461,
      "Mod": 4462,
      "ech": 4463,
      "ĠLaw": 4464,
      "Ġgiving": 4465,
      "Ġdeveloping": 4466,
      "Ġparameters": 4467,
      ":**": 4468,
      "var": 4469,
      "Ġded": 4470,
      "esson": 4471,
      "Ġusers": 4472,
      "db": 4473,
      "dfrac": 4474,
      "json": 4475,
      "atur": 4476,
      "ĠForm": 4477,
      "Ġquadr": 4478,
      "Ġpublished": 4479,
      "urt": 4480,
      "ĠSm": 4481,
      "Ġconclusion": 4482,
      "ario": 4483,
      "Ġworked": 4484,
      "Ġtalking": 4485,
      "Ġtitle": 4486,
      "ĠSum": 4487,
      "Ġtests": 4488,
      "Ġderiv": 4489,
      "ros": 4490,
      "ÂłÂłÂłÂłÂłÂłÂłÂłÂłÂłÂłÂłÂłÂłÂłÂł": 4491,
      "}(": 4492,
      "Ġresistance": 4493,
      "ĠHealth": 4494,
      "while": 4495,
      "ĠMathemat": 4496,
      "othesis": 4497,
      "Ġparallel": 4498,
      "Ġancient": 4499,
      "}=": 4500,
      "ĠPract": 4501,
      "html": 4502,
      "Ġgard": 4503,
      "ĠIN": 4504,
      "Ġsurpr": 4505,
      "Ġadvant": 4506,
      "Ġchemical": 4507,
      "77": 4508,
      "~~": 4509,
      "Ġweeks": 4510,
      "Ġ${\\": 4511,
      "Ġhit": 4512,
      "Ġnarr": 4513,
      "Ġwood": 4514,
      "Ġhom": 4515,
      "rial": 4516,
      "Ġmyself": 4517,
      "Ġstructures": 4518,
      "Ġtend": 4519,
      "Ġproof": 4520,
      "aby": 4521,
      "ief": 4522,
      "Ġcollection": 4523,
      "Ġdifferences": 4524,
      "aught": 4525,
      "Ġarchitect": 4526,
      "Ġfavorite": 4527,
      "ĠStage": 4528,
      "All": 4529,
      "Find": 4530,
      "||": 4531,
      "amm": 4532,
      "........": 4533,
      "ĠAustral": 4534,
      "Ġmaster": 4535,
      "ĠFeb": 4536,
      "ĠAlso": 4537,
      ")$$": 4538,
      "ĠToday": 4539,
      "Ġscientific": 4540,
      "fection": 4541,
      "Ġpassed": 4542,
      "filename": 4543,
      "Ġanx": 4544,
      "tex": 4545,
      "ĠFact": 4546,
      "Ġparser": 4547,
      "Ġremove": 4548,
      "Ġ<=": 4549,
      "ĠHol": 4550,
      "Ġinstit": 4551,
      "Ġeye": 4552,
      "Ġdivided": 4553,
      "En": 4554,
      "care": 4555,
      "Ġchanged": 4556,
      "[-": 4557,
      "Ġalgebra": 4558,
      "Ġcoll": 4559,
      "vention": 4560,
      "Ġfamilies": 4561,
      "sim": 4562,
      "ĠOut": 4563,
      "Ġpatient": 4564,
      "assertEqual": 4565,
      "85": 4566,
      "ĠRead": 4567,
      "Ġdive": 4568,
      "Ġcarry": 4569,
      "Ġsignificantly": 4570,
      "ĠBritish": 4571,
      "Type": 4572,
      "Ġwild": 4573,
      "Ġanimal": 4574,
      "ĠCount": 4575,
      "ĠGra": 4576,
      "ĠHome": 4577,
      "Ġadding": 4578,
      "Num": 4579,
      "base": 4580,
      "Ġfru": 4581,
      "icense": 4582,
      "Ġnucle": 4583,
      "Ġclasses": 4584,
      "newcommand": 4585,
      "ĠResearch": 4586,
      "copy": 4587,
      "gra": 4588,
      "Ġinj": 4589,
      "Ġconflict": 4590,
      "Ġcomfort": 4591,
      "Ġinsights": 4592,
      "Ġexercise": 4593,
      "]]": 4594,
      "gu": 4595,
      "rical": 4596,
      "Ġseconds": 4597,
      "ĠKe": 4598,
      "Ġconnections": 4599,
      "Ġabsol": 4600,
      "Ġcelebr": 4601,
      "ĠPython": 4602,
      "net": 4603,
      "Ġgenerally": 4604,
      "Ġallowing": 4605,
      "cks": 4606,
      "Ġ(-": 4607,
      "Ġknows": 4608,
      "mathbf": 4609,
      "ollow": 4610,
      "ĠCo": 4611,
      "anging": 4612,
      "Ġplease": 4613,
      "Ġproport": 4614,
      "Ġamaz": 4615,
      "words": 4616,
      "dig": 4617,
      "vis": 4618,
      "ilarly": 4619,
      "ocial": 4620,
      "Ġadvent": 4621,
      "force": 4622,
      "Ġdegrees": 4623,
      "Ġsav": 4624,
      "Ġisinstance": 4625,
      "Ġwal": 4626,
      "ĠFurther": 4627,
      "ĠChina": 4628,
      "Ġpush": 4629,
      "ĠPres": 4630,
      "estions": 4631,
      "ĠEduc": 4632,
      "Why": 4633,
      "aul": 4634,
      "tage": 4635,
      "Ġrates": 4636,
      ",\\": 4637,
      "06": 4638,
      "Me": 4639,
      "Ġing": 4640,
      "arning": 4641,
      "Get": 4642,
      "rec": 4643,
      "Ġdro": 4644,
      "Ġhar": 4645,
      "ĠRuss": 4646,
      "ibr": 4647,
      "Ġmember": 4648,
      "stitute": 4649,
      "Ġsounds": 4650,
      "Ġult": 4651,
      "quare": 4652,
      "ĠMus": 4653,
      "ĠMost": 4654,
      "ĠExp": 4655,
      "Ġenter": 4656,
      "ĠTherefore": 4657,
      "ued": 4658,
      "Ġsem": 4659,
      "Ġfather": 4660,
      "Ġmut": 4661,
      "Ġradius": 4662,
      "dro": 4663,
      "gn": 4664,
      "Ġtrac": 4665,
      "Ġbed": 4666,
      "Ġthoughts": 4667,
      "Ġfreed": 4668,
      "43": 4669,
      "ky": 4670,
      "Ġonto": 4671,
      "Ġ45": 4672,
      "Ġperhaps": 4673,
      "Ġgrade": 4674,
      "ĠQuestion": 4675,
      "Ġillust": 4676,
      "!\"": 4677,
      "Ġwa": 4678,
      "ĠFunction": 4679,
      "aven": 4680,
      "Ġestablish": 4681,
      "Ġmist": 4682,
      "Ġmode": 4683,
      "root": 4684,
      "Ġdevices": 4685,
      "Imagine": 4686,
      "pers": 4687,
      "Ġfields": 4688,
      "Ġorigin": 4689,
      "dent": 4690,
      "pid": 4691,
      "Ġdeeper": 4692,
      "Ġexists": 4693,
      "ĠPM": 4694,
      "weight": 4695,
      "Ġemphas": 4696,
      "Ġteachers": 4697,
      "Ġliterature": 4698,
      "Ġplays": 4699,
      "Ġscreen": 4700,
      "Ġreality": 4701,
      "ictionary": 4702,
      "MA": 4703,
      "Pr": 4704,
      "ĠPat": 4705,
      "Ġdetect": 4706,
      "ĠSee": 4707,
      "mathbb": 4708,
      "Ġutil": 4709,
      "UL": 4710,
      "dist": 4711,
      "Ġrelevant": 4712,
      "Ġsolving": 4713,
      "Ġcitiz": 4714,
      "Ġ^": 4715,
      "Ġknew": 4716,
      "ultural": 4717,
      "pected": 4718,
      "ĠHistory": 4719,
      "PS": 4720,
      "enty": 4721,
      "Ġcontract": 4722,
      "Ġschools": 4723,
      "ĠSolution": 4724,
      "istry": 4725,
      "Ġmanufact": 4726,
      "ĠScience": 4727,
      "what": 4728,
      "Ġcolon": 4729,
      "alysis": 4730,
      "Ġreasons": 4731,
      "ĠRed": 4732,
      "Ġ2008": 4733,
      "Ġbasis": 4734,
      "Ġcauses": 4735,
      "attle": 4736,
      "Ġprove": 4737,
      "ĠTheir": 4738,
      "ĠThus": 4739,
      "crete": 4740,
      "loss": 4741,
      "pace": 4742,
      "Ġbur": 4743,
      "Ġinternational": 4744,
      "Ġcontinuous": 4745,
      "ĠNumber": 4746,
      "Ġreference": 4747,
      "Ġyes": 4748,
      "Ġprojects": 4749,
      "Ġmilitary": 4750,
      "lished": 4751,
      "Ġgrid": 4752,
      "Ġalternative": 4753,
      "Ġwebsite": 4754,
      "Test": 4755,
      "Ġmentioned": 4756,
      "ups": 4757,
      "Ġattrib": 4758,
      "Ġexisting": 4759,
      "batch": 4760,
      "ĠGreat": 4761,
      "next": 4762,
      "ĠAnswer": 4763,
      "'])": 4764,
      "67": 4765,
      "Ġsend": 4766,
      "keys": 4767,
      "Ġteaching": 4768,
      "Ġreaders": 4769,
      "gener": 4770,
      "Ġdark": 4771,
      "oming": 4772,
      "ĠEd": 4773,
      "Ġdespite": 4774,
      "Ġtypically": 4775,
      "iable": 4776,
      "ref": 4777,
      "usion": 4778,
      "Ġsoil": 4779,
      "Ġteacher": 4780,
      "hold": 4781,
      "ĠJes": 4782,
      "Ġdiscovered": 4783,
      "ĠAlthough": 4784,
      "Ġalthough": 4785,
      "Ġunc": 4786,
      "Ġparty": 4787,
      "Ġintegral": 4788,
      "Sol": 4789,
      "oder": 4790,
      "Ġpropos": 4791,
      "Ġcurve": 4792,
      "Ġcapital": 4793,
      "Ġorganizations": 4794,
      "idx": 4795,
      "Ġdead": 4796,
      "Ġadapt": 4797,
      "orders": 4798,
      "æľ": 4799,
      "Ġguide": 4800,
      "Ġcharge": 4801,
      "94": 4802,
      "vest": 4803,
      "ixt": 4804,
      "Ġà¤": 4805,
      "Ġreplace": 4806,
      "Ġtrade": 4807,
      "Ġinternal": 4808,
      "Ġresponsible": 4809,
      "ĨĴ": 4810,
      "vec": 4811,
      "ĠJu": 4812,
      "ĠChapter": 4813,
      "ĠAng": 4814,
      "Ġtried": 4815,
      "More": 4816,
      "Ð°": 4817,
      "Ġbrought": 4818,
      "Ġhear": 4819,
      "osis": 4820,
      "Ġserve": 4821,
      "Ġcouple": 4822,
      "onds": 4823,
      "ĠMark": 4824,
      "Ġoutcomes": 4825,
      "ĠChristian": 4826,
      "pop": 4827,
      "ĠDem": 4828,
      "Ġrock": 4829,
      "Ġobvious": 4830,
      "Ġeffort": 4831,
      "Ġinterpret": 4832,
      "estern": 4833,
      "ĠSch": 4834,
      "close": 4835,
      "Ġpolic": 4836,
      "Ġlooked": 4837,
      "Ġcontaining": 4838,
      "ĠPost": 4839,
      "ĠUp": 4840,
      "Ġdescribed": 4841,
      "Ġopportunity": 4842,
      "Ġfarm": 4843,
      "ĠRel": 4844,
      "Ġsharing": 4845,
      "Ġslight": 4846,
      "View": 4847,
      "Ġpages": 4848,
      "Ġteach": 4849,
      "beta": 4850,
      "ses": 4851,
      "Ġband": 4852,
      "utor": 4853,
      "active": 4854,
      "Ġotherwise": 4855,
      "Ġemail": 4856,
      "default": 4857,
      "Ġminim": 4858,
      "Ġheld": 4859,
      "Ġqual": 4860,
      "Ġdefine": 4861,
      "rupt": 4862,
      "Ġcompre": 4863,
      "Ġ2009": 4864,
      "gress": 4865,
      "perty": 4866,
      "Ġplayed": 4867,
      "Ġtopics": 4868,
      "Time": 4869,
      "last": 4870,
      "zing": 4871,
      "attr": 4872,
      "ĠBecause": 4873,
      "IG": 4874,
      "esh": 4875,
      "score": 4876,
      "Ġcentral": 4877,
      "Ġ2007": 4878,
      "Ġmultiply": 4879,
      "Ġprivate": 4880,
      "Ġdry": 4881,
      "update": 4882,
      "ĠFrance": 4883,
      "CT": 4884,
      "Ġ35": 4885,
      "Ġsituations": 4886,
      "Ġmathematics": 4887,
      "Ġvirt": 4888,
      "CH": 4889,
      "OW": 4890,
      "Ġcv": 4891,
      "urb": 4892,
      "Ġstream": 4893,
      "ocol": 4894,
      "Ġ>=": 4895,
      "Ġturned": 4896,
      "Ġlimited": 4897,
      "ĠÂłĠÂłĠÂłĠÂł": 4898,
      "Pl": 4899,
      "oke": 4900,
      "post": 4901,
      "Ġcards": 4902,
      "roy": 4903,
      "Ġvict": 4904,
      "Ġveget": 4905,
      "uses": 4906,
      "ĠMean": 4907,
      "41": 4908,
      "Ind": 4909,
      "message": 4910,
      "Ġcry": 4911,
      "Ġrout": 4912,
      "Ġ32": 4913,
      "python": 4914,
      "Ġfrequency": 4915,
      "Ġspecifically": 4916,
      "Ġcircum": 4917,
      "Ġlargest": 4918,
      "IL": 4919,
      "MS": 4920,
      "Ġconcerns": 4921,
      "93": 4922,
      "Ġtoward": 4923,
      "points": 4924,
      "Ġdouble": 4925,
      "ĠUnit": 4926,
      "84": 4927,
      "nes": 4928,
      "zy": 4929,
      "Ġ--------": 4930,
      "ĠCar": 4931,
      "Ġcurrently": 4932,
      "Ġfinally": 4933,
      "Ġopposite": 4934,
      "create": 4935,
      "Ġeffectively": 4936,
      "Ġplanning": 4937,
      "sg": 4938,
      "asure": 4939,
      "Ġcompar": 4940,
      "ïĥª": 4941,
      "amma": 4942,
      "ocab": 4943,
      "ĠHar": 4944,
      "Ġfilter": 4945,
      "Ġsurrounding": 4946,
      "US": 4947,
      "Ġmole": 4948,
      "Ġincred": 4949,
      "Ġtrees": 4950,
      "Ġprofessional": 4951,
      "Sub": 4952,
      "ÃĹ": 4953,
      "airs": 4954,
      "Ġletter": 4955,
      "Of": 4956,
      "RA": 4957,
      "åı": 4958,
      "Ġfaith": 4959,
      "Ġintellig": 4960,
      "Ġtruth": 4961,
      "Ġready": 4962,
      "UT": 4963,
      "Ġwat": 4964,
      "ederal": 4965,
      "ĠPhys": 4966,
      "Ġreceive": 4967,
      "Ġscientists": 4968,
      "********": 4969,
      "??": 4970,
      "Ð¾": 4971,
      "ĠIS": 4972,
      "Ġune": 4973,
      "atever": 4974,
      "Ġminimum": 4975,
      "Ġtrend": 4976,
      "check": 4977,
      "Not": 4978,
      "Set": 4979,
      "Ġvariety": 4980,
      "Ġ2017": 4981,
      "uary": 4982,
      "Ġupdate": 4983,
      "Ġcolors": 4984,
      "Ġexperiment": 4985,
      "Ġofficial": 4986,
      "Ġequivalent": 4987,
      "rab": 4988,
      "Ġtrig": 4989,
      "Ġ80": 4990,
      "Ġacadem": 4991,
      "ïĥº": 4992,
      "parent": 4993,
      "uting": 4994,
      "Ġ29": 4995,
      "Ġtesting": 4996,
      "Ġplayers": 4997,
      "Ġhighly": 4998,
      "Ġarguments": 4999,
      "Expl": 5000,
      "ĠIndia": 5001,
      "Ġcustomers": 5002,
      "Ġdamage": 5003,
      "åħ": 5004,
      "omb": 5005,
      "iform": 5006,
      "Ġcharg": 5007,
      "Ġoperation": 5008,
      "Ġwide": 5009,
      "osen": 5010,
      "Ġroots": 5011,
      "Ġbreath": 5012,
      ")}": 5013,
      "how": 5014,
      "Ġgave": 5015,
      "ĠHer": 5016,
      "These": 5017,
      "ĠJune": 5018,
      "````": 5019,
      "^{-": 5020,
      "Ġdial": 5021,
      "show": 5022,
      "Ġconstit": 5023,
      "ĠWhich": 5024,
      "Ġbusinesses": 5025,
      "Ġstatus": 5026,
      "Ġfully": 5027,
      "=[": 5028,
      "othing": 5029,
      "Ġdecisions": 5030,
      "Ġlesson": 5031,
      "Ġlandsc": 5032,
      "UR": 5033,
      "Ġeconomy": 5034,
      "Ġsetting": 5035,
      "Ġproduced": 5036,
      ")):": 5037,
      "Ġrational": 5038,
      "ĠEvery": 5039,
      "strict": 5040,
      "Ġcomponent": 5041,
      "ĠRemember": 5042,
      "Â·": 5043,
      "acc": 5044,
      "Ġ##": 5045,
      "Ġfresh": 5046,
      "Ġyield": 5047,
      "Ġnotice": 5048,
      "Ġwants": 5049,
      "Ġdivide": 5050,
      "Ġcorresponding": 5051,
      "ystem": 5052,
      "uman": 5053,
      "rows": 5054,
      "Ġlessons": 5055,
      "Ġhappy": 5056,
      "Ġleaves": 5057,
      "ints": 5058,
      "ĠAdditionally": 5059,
      "space": 5060,
      "going": 5061,
      "Ġamazing": 5062,
      "ris": 5063,
      "Ġeating": 5064,
      "Ġ(\"": 5065,
      "ĠDi": 5066,
      "Ġtransport": 5067,
      "Ġmer": 5068,
      "eline": 5069,
      "Ġempty": 5070,
      "Ġdiagn": 5071,
      "09": 5072,
      "eries": 5073,
      "Ġburn": 5074,
      "Ġbinary": 5075,
      "Ġcouldn": 5076,
      "Ġbirth": 5077,
      "fol": 5078,
      "vol": 5079,
      "Ġrele": 5080,
      "Ġdivision": 5081,
      "Ġdiscussion": 5082,
      "Ġselected": 5083,
      "uracy": 5084,
      "Ðµ": 5085,
      "Ġremind": 5086,
      "Ġ2015": 5087,
      "Ġgrav": 5088,
      "grid": 5089,
      "ashing": 5090,
      "Ġestablished": 5091,
      "86": 5092,
      "ãĥ": 5093,
      "ĠBas": 5094,
      "Ġchanging": 5095,
      "ĠCommun": 5096,
      "Ġauth": 5097,
      "Ġbra": 5098,
      "olar": 5099,
      "power": 5100,
      "writ": 5101,
      "Ġdanger": 5102,
      "that": 5103,
      "Ġ2018": 5104,
      "ĠComput": 5105,
      "annels": 5106,
      "Ġnumerous": 5107,
      "ĠParam": 5108,
      "life": 5109,
      "Ġdoll": 5110,
      "apers": 5111,
      "They": 5112,
      "Ġplanet": 5113,
      "Out": 5114,
      "Solution": 5115,
      "grad": 5116,
      "Ġsplit": 5117,
      "Ġbin": 5118,
      "Ġinterested": 5119,
      "aign": 5120,
      "onic": 5121,
      "Ġsou": 5122,
      "Ġolder": 5123,
      "Ġstrategy": 5124,
      "ĠAge": 5125,
      "Ġensuring": 5126,
      "IP": 5127,
      "items": 5128,
      "ontal": 5129,
      "Ġloop": 5130,
      "IM": 5131,
      "ernel": 5132,
      "Ġcandid": 5133,
      "ĠSam": 5134,
      "ava": 5135,
      "Ġexpon": 5136,
      "Ġclearly": 5137,
      "ometimes": 5138,
      "'''": 5139,
      "Ġfractions": 5140,
      "Ġrotation": 5141,
      "Ġresource": 5142,
      "Ġbenefit": 5143,
      "Ġgold": 5144,
      "rief": 5145,
      "acing": 5146,
      "fered": 5147,
      "Ġspaces": 5148,
      "ĠOnce": 5149,
      "ĠEuropean": 5150,
      "Ġspecified": 5151,
      "Ġphone": 5152,
      "Ġpromote": 5153,
      "Ġchoices": 5154,
      "ns": 5155,
      "static": 5156,
      "ows": 5157,
      "Ġstage": 5158,
      "Ġsociet": 5159,
      "params": 5160,
      "Ġâī": 5161,
      "Ad": 5162,
      "idge": 5163,
      "Ġnotes": 5164,
      "Ġreduced": 5165,
      "âĶĢâĶĢ": 5166,
      "Ġdrop": 5167,
      "unately": 5168,
      "Ġresulting": 5169,
      "Ġtasks": 5170,
      "ql": 5171,
      "Ġhuge": 5172,
      "ĠSw": 5173,
      "rie": 5174,
      "unt": 5175,
      "Ġinvolve": 5176,
      "Ġsupply": 5177,
      "Ġcollege": 5178,
      "Frame": 5179,
      "iant": 5180,
      "rd": 5181,
      "wide": 5182,
      "Ġsell": 5183,
      "Ġmob": 5184,
      "ĠStat": 5185,
      "Ġphilos": 5186,
      "Ġopin": 5187,
      "ĉĉĉĉ": 5188,
      "Ġmissing": 5189,
      "Ġappreciate": 5190,
      "After": 5191,
      "Ġdream": 5192,
      "Ġdepth": 5193,
      "ĠJesus": 5194,
      "*(": 5195,
      "File": 5196,
      "aur": 5197,
      "rics": 5198,
      "Ġhous": 5199,
      "Ġveh": 5200,
      "Ġbatch": 5201,
      "Ġlived": 5202,
      "uries": 5203,
      "Ġsignal": 5204,
      "Ġsummer": 5205,
      "Ġmoved": 5206,
      "Ġbodies": 5207,
      "edia": 5208,
      "stream": 5209,
      "Ġgender": 5210,
      "Ġrecently": 5211,
      "Ġfollowed": 5212,
      "title": 5213,
      "DF": 5214,
      "Key": 5215,
      "nn": 5216,
      "Ġnice": 5217,
      "ĠDay": 5218,
      "Ġapproaches": 5219,
      "Ġrespond": 5220,
      "Ġreceived": 5221,
      "Ġearn": 5222,
      "utive": 5223,
      "Ġasking": 5224,
      "oper": 5225,
      "Ġjson": 5226,
      "Ġbelong": 5227,
      "Ġcolumns": 5228,
      "ĠIntroduction": 5229,
      "cast": 5230,
      "iverse": 5231,
      "lam": 5232,
      "vari": 5233,
      "{}": 5234,
      "reme": 5235,
      "env": 5236,
      "Ġhero": 5237,
      "dot": 5238,
      "doc": 5239,
      "using": 5240,
      "Ġshop": 5241,
      "ferent": 5242,
      "Ġcold": 5243,
      "Ġrefers": 5244,
      "Ġcalculated": 5245,
      "infty": 5246,
      "etch": 5247,
      "Ġ1000": 5248,
      "Ġcompl": 5249,
      "ulture": 5250,
      "Ġgoals": 5251,
      "obj": 5252,
      "Ġformed": 5253,
      "Ġpolicies": 5254,
      "ĠOpt": 5255,
      "Ġevol": 5256,
      "Ġhelping": 5257,
      "Ġdrug": 5258,
      "amental": 5259,
      "','": 5260,
      "ĠCheck": 5261,
      "Ġdoub": 5262,
      "Read": 5263,
      "cell": 5264,
      "ipe": 5265,
      "Ġcir": 5266,
      "Ġcub": 5267,
      "ĠKing": 5268,
      "Ġrapid": 5269,
      "Ġhandle": 5270,
      "Ġfreedom": 5271,
      "then": 5272,
      "Ġphen": 5273,
      "Ġfine": 5274,
      "Ġstarts": 5275,
      "However": 5276,
      "Ġcontinued": 5277,
      "hest": 5278,
      "ĠBo": 5279,
      "Ġpeace": 5280,
      "Ġattract": 5281,
      "Ġfeelings": 5282,
      "ometric": 5283,
      "65": 5284,
      "stract": 5285,
      "ĠMr": 5286,
      "Ġacqu": 5287,
      "Ġlabor": 5288,
      "87": 5289,
      "dated": 5290,
      "ingu": 5291,
      "omy": 5292,
      "Ġupper": 5293,
      "Ġcontroll": 5294,
      "Ġdataset": 5295,
      "Ġsentence": 5296,
      "olic": 5297,
      "Ġprefer": 5298,
      "Ġ2014": 5299,
      "Ġextrem": 5300,
      "Ġadjust": 5301,
      "ÂłÂłÂłÂłÂłÂłÂł": 5302,
      "tember": 5303,
      "Ġconfidence": 5304,
      "Ġdescribe": 5305,
      "open": 5306,
      "Ġshall": 5307,
      "Ġkid": 5308,
      "Ġque": 5309,
      "Ġdepending": 5310,
      "Ġengaging": 5311,
      "Ġparameter": 5312,
      "æķ": 5313,
      "Ġtick": 5314,
      "Ġcamer": 5315,
      "elines": 5316,
      "ĠReview": 5317,
      "Ġcultures": 5318,
      "}}\\": 5319,
      "Ġiniti": 5320,
      "pass": 5321,
      "Ġcast": 5322,
      "ĠAc": 5323,
      "mbols": 5324,
      "orge": 5325,
      "Ġcraft": 5326,
      "Ġwait": 5327,
      "Ġpen": 5328,
      "Ġfing": 5329,
      "ifier": 5330,
      "ĠAM": 5331,
      "plt": 5332,
      "Ġourselves": 5333,
      "Ġadvanced": 5334,
      "ĠÏĢ": 5335,
      "89": 5336,
      "ortion": 5337,
      "Ġlogging": 5338,
      "Ġemotional": 5339,
      "Ġworksheets": 5340,
      "ĠValueError": 5341,
      "Ġcitizens": 5342,
      "Ġadvance": 5343,
      "ĠImagine": 5344,
      "normal": 5345,
      "Ġprot": 5346,
      "Ġinsp": 5347,
      "Ġvoltage": 5348,
      "ĠPeople": 5349,
      "Ġfish": 5350,
      "ĠPR": 5351,
      "Ġweather": 5352,
      "ĠAmericans": 5353,
      "div": 5354,
      "Ġphase": 5355,
      "Ġinches": 5356,
      "Ġtells": 5357,
      "ĠïĢ": 5358,
      "icing": 5359,
      "Ġassume": 5360,
      "Ġtechnologies": 5361,
      "]))": 5362,
      "ĠTheorem": 5363,
      "dev": 5364,
      "Ġanxiety": 5365,
      "rot": 5366,
      "Ġdoor": 5367,
      "ressed": 5368,
      "Ġrepresentation": 5369,
      "Ġ70": 5370,
      "edge": 5371,
      "dim": 5372,
      "norm": 5373,
      "pack": 5374,
      "rc": 5375,
      "ether": 5376,
      "ums": 5377,
      "ĠCity": 5378,
      "ĠDiv": 5379,
      "pping": 5380,
      "const": 5381,
      "ector": 5382,
      "Ġshapes": 5383,
      "OS": 5384,
      "ĠRE": 5385,
      "Ġgradu": 5386,
      "While": 5387,
      "overy": 5388,
      "Ġmeant": 5389,
      "ipment": 5390,
      "ĠAugust": 5391,
      "Ġmix": 5392,
      "ĠDif": 5393,
      "Ġunknown": 5394,
      "Ġmanage": 5395,
      "Per": 5396,
      "Ġnation": 5397,
      "ENT": 5398,
      "=-": 5399,
      "dr": 5400,
      "Ġsecret": 5401,
      "Ġworry": 5402,
      "Ġju": 5403,
      "aker": 5404,
      "ĠKey": 5405,
      "Ġjustice": 5406,
      "Ġcircuit": 5407,
      "ĠApril": 5408,
      "ĠFurthermore": 5409,
      "57": 5410,
      "otic": 5411,
      "Ġresid": 5412,
      "Ġprepar": 5413,
      "Ġchallenging": 5414,
      "________________": 5415,
      "ĠInstead": 5416,
      "ael": 5417,
      "ded": 5418,
      "ðŁ": 5419,
      "imeter": 5420,
      "Ġprop": 5421,
      "Ġkil": 5422,
      "Ġ//": 5423,
      "sl": 5424,
      "ĠCirc": 5425,
      "valu": 5426,
      "ibilities": 5427,
      "ĠAlgebra": 5428,
      "Another": 5429,
      "Ġdatabase": 5430,
      "block": 5431,
      "Ġapproximately": 5432,
      "Ġsand": 5433,
      "raction": 5434,
      "ĠHave": 5435,
      "ĠNote": 5436,
      "Ġdiam": 5437,
      "Some": 5438,
      "Ġbeg": 5439,
      "ĠJul": 5440,
      "Ġwouldn": 5441,
      "Ġsmart": 5442,
      "Ġlabels": 5443,
      "Ġanti": 5444,
      "Ġimmediately": 5445,
      "Node": 5446,
      "Su": 5447,
      "Ġhop": 5448,
      "urance": 5449,
      "ĠMake": 5450,
      "Ġworkers": 5451,
      "ees": 5452,
      "long": 5453,
      "Ġwave": 5454,
      "ĠMoreover": 5455,
      "Ġbatter": 5456,
      "Ġeffic": 5457,
      "ĠMarch": 5458,
      "Ġspent": 5459,
      "Can": 5460,
      "aled": 5461,
      "Ġsequ": 5462,
      "Ġfigures": 5463,
      "Ob": 5464,
      "gl": 5465,
      "oto": 5466,
      "overn": 5467,
      "http": 5468,
      "Ġmount": 5469,
      "Ġorganization": 5470,
      "Ġcoordinates": 5471,
      "Ġthousands": 5472,
      "ĠDav": 5473,
      "Ġliqu": 5474,
      "initely": 5475,
      "Ġsignificance": 5476,
      "ran": 5477,
      "Ġodd": 5478,
      "amin": 5479,
      "Ġvital": 5480,
      "Ġadminist": 5481,
      "ools": 5482,
      "Ġtruly": 5483,
      "fix": 5484,
      "Ġ31": 5485,
      "Ġthanks": 5486,
      "Ġdenominator": 5487,
      "OV": 5488,
      "ovember": 5489,
      "Ġcapacity": 5490,
      "Ġhair": 5491,
      "Ġstock": 5492,
      "Ġclosed": 5493,
      "Ġscript": 5494,
      "ĠChar": 5495,
      "orrow": 5496,
      "Ġple": 5497,
      "Ġfuel": 5498,
      "ille": 5499,
      "func": 5500,
      "orage": 5501,
      "Ġcities": 5502,
      "context": 5503,
      "issions": 5504,
      "ĠDevelop": 5505,
      "Ġseparate": 5506,
      "ĠEducation": 5507,
      ")-": 5508,
      "Ġtheorem": 5509,
      "ulated": 5510,
      "ĠLog": 5511,
      "Ġminor": 5512,
      "Ġoccurs": 5513,
      "Ġappears": 5514,
      "TE": 5515,
      "Ġsales": 5516,
      "Ġwid": 5517,
      "lean": 5518,
      "Ġsup": 5519,
      "Ġinvolving": 5520,
      "hetic": 5521,
      "igenous": 5522,
      "Mat": 5523,
      "men": 5524,
      "Ġiter": 5525,
      "Ġvary": 5526,
      "Ġcomments": 5527,
      "Ġkm": 5528,
      "oving": 5529,
      "Ġentry": 5530,
      "Ġ2006": 5531,
      "Ġgirl": 5532,
      "ampling": 5533,
      "Ġfixed": 5534,
      "Ġvoice": 5535,
      "ĠBlack": 5536,
      "Ġvertical": 5537,
      "lin": 5538,
      "tan": 5539,
      "Ġfaster": 5540,
      "Ġseed": 5541,
      "Then": 5542,
      "versity": 5543,
      "Ġraw": 5544,
      "Ġfamiliar": 5545,
      "ĠConsider": 5546,
      "ÑĤ": 5547,
      "Ġast": 5548,
      "Ġstar": 5549,
      "ĠPower": 5550,
      "Ġrise": 5551,
      "ĠIts": 5552,
      "Ġcalls": 5553,
      "ĠQuestions": 5554,
      "Ġglass": 5555,
      "Ġeventually": 5556,
      "Ġbehavi": 5557,
      "game": 5558,
      "save": 5559,
      "ĠOF": 5560,
      "Ġmere": 5561,
      "anges": 5562,
      "Ġestimate": 5563,
      "columns": 5564,
      "Welcome": 5565,
      "pan": 5566,
      "ara": 5567,
      "abs": 5568,
      "clude": 5569,
      "Ġkeeping": 5570,
      "Man": 5571,
      "Ġ;": 5572,
      "Ġoffice": 5573,
      "Ġturns": 5574,
      "Have": 5575,
      "window": 5576,
      "Ġthread": 5577,
      "stat": 5578,
      "ĠAv": 5579,
      "antic": 5580,
      "ĠEl": 5581,
      "Ġletters": 5582,
      "Ġrepresented": 5583,
      "Ġcombination": 5584,
      "ĠĠĠĠĠĠĠĠĠĠĠĠĠĠ": 5585,
      "Ġlibrary": 5586,
      "ĠPresident": 5587,
      "59": 5588,
      "Ġtrou": 5589,
      "Ġwaste": 5590,
      "Ġplaced": 5591,
      "arian": 5592,
      "ossible": 5593,
      "Ġcampaign": 5594,
      ".[": 5595,
      "uk": 5596,
      "Ġhosp": 5597,
      "mented": 5598,
      "Ġcreation": 5599,
      "ĠProblem": 5600,
      "Ġfamous": 5601,
      "Ġcloser": 5602,
      "Ġtouch": 5603,
      "ĠLinear": 5604,
      "ln": 5605,
      "åŃ": 5606,
      "cean": 5607,
      "Ġsea": 5608,
      "ĠRoman": 5609,
      "Ġprofession": 5610,
      "ĠCreate": 5611,
      "Ed": 5612,
      "Ġengage": 5613,
      "alt": 5614,
      "Ġcompute": 5615,
      "Ġcreative": 5616,
      "see": 5617,
      "phi": 5618,
      "Ġtransfer": 5619,
      "Ġconstruction": 5620,
      "iveness": 5621,
      "Ġborn": 5622,
      "cember": 5623,
      "uster": 5624,
      "Ġrisks": 5625,
      "Ġcredit": 5626,
      "Ġauthors": 5627,
      "osure": 5628,
      "ĠThanks": 5629,
      "Ġdrive": 5630,
      "Ġdomain": 5631,
      "52": 5632,
      "Ġexternal": 5633,
      "ĠPers": 5634,
      "Ġarm": 5635,
      "Ġbecoming": 5636,
      "being": 5637,
      "Ġpython": 5638,
      "Ġsamples": 5639,
      "Ġvs": 5640,
      "never": 5641,
      "inner": 5642,
      "Ġsugar": 5643,
      "Ġrelative": 5644,
      "Ġdesired": 5645,
      "lands": 5646,
      "clusive": 5647,
      "Ġmaintaining": 5648,
      "ĠType": 5649,
      "ondon": 5650,
      "Ġstandards": 5651,
      "bed": 5652,
      "mas": 5653,
      "ĠFound": 5654,
      "Ġreturned": 5655,
      "Ġhelped": 5656,
      "argument": 5657,
      "Ġincreases": 5658,
      "Ġrecommend": 5659,
      "\"],": 5660,
      "graph": 5661,
      "Ġthick": 5662,
      "oted": 5663,
      "Ġatm": 5664,
      "Ġinspir": 5665,
      "Ġartists": 5666,
      "Ġsquares": 5667,
      "Ġsexual": 5668,
      "gments": 5669,
      "icians": 5670,
      "oles": 5671,
      "enses": 5672,
      "match": 5673,
      "Ġsigns": 5674,
      "cohol": 5675,
      "ĠOctober": 5676,
      "Ġslightly": 5677,
      "sample": 5678,
      "Ã¡": 5679,
      "Ġfalse": 5680,
      "ĠSign": 5681,
      "ĠDuring": 5682,
      "Ġlocated": 5683,
      "mitted": 5684,
      "Ġaccurate": 5685,
      "ham": 5686,
      "ĠHigh": 5687,
      "Ġnearly": 5688,
      "Ġrace": 5689,
      "Ġhealthcare": 5690,
      "Ġwis": 5691,
      "imer": 5692,
      "ĠGood": 5693,
      "/(": 5694,
      "Posts": 5695,
      "Ġtail": 5696,
      "atically": 5697,
      "ĠLa": 5698,
      "Ġresil": 5699,
      "Ġspect": 5700,
      "Ġtransc": 5701,
      "String": 5702,
      "metic": 5703,
      "({": 5704,
      "Ġfant": 5705,
      "Ġisol": 5706,
      "ĠLike": 5707,
      "Ġcarefully": 5708,
      "Ġdatetime": 5709,
      "TH": 5710,
      "Ġtables": 5711,
      "Ġslope": 5712,
      "orph": 5713,
      "amil": 5714,
      "ĠAtt": 5715,
      "istical": 5716,
      "Ġkg": 5717,
      "Ġmeters": 5718,
      "Ġdetermined": 5719,
      "Ġdrawn": 5720,
      "'):": 5721,
      "sm": 5722,
      "Ġahead": 5723,
      "Ġpaid": 5724,
      "ĠIdent": 5725,
      "Ġking": 5726,
      "Ġedges": 5727,
      "Ġincome": 5728,
      "Ġforeign": 5729,
      "53": 5730,
      "Do": 5731,
      "author": 5732,
      "equal": 5733,
      "Ġpul": 5734,
      "Ġreaction": 5735,
      "ests": 5736,
      "Ġpreserv": 5737,
      "Ġremaining": 5738,
      "build": 5739,
      "cat": 5740,
      "ho": 5741,
      "Ġbacter": 5742,
      "Ġegg": 5743,
      "Ġconduct": 5744,
      "AG": 5745,
      "nodes": 5746,
      "water": 5747,
      "Ġdomin": 5748,
      "Ġlots": 5749,
      "Ġwhatever": 5750,
      "Ġleaving": 5751,
      "Ġstudying": 5752,
      "Ġdimensions": 5753,
      "Ġdx": 5754,
      "ica": 5755,
      "ĠEquations": 5756,
      "ĠAccording": 5757,
      "dt": 5758,
      "Ġfill": 5759,
      "Ġlies": 5760,
      "umin": 5761,
      "ĠPress": 5762,
      "Ġplans": 5763,
      "Ġregions": 5764,
      "Ġhighlight": 5765,
      "Ġadvoc": 5766,
      "Ġpercentage": 5767,
      "Ġdrawing": 5768,
      "stitution": 5769,
      "anged": 5770,
      "Ġprotection": 5771,
      "Ġnetworks": 5772,
      "Ġfluid": 5773,
      "predict": 5774,
      "ĠSeptember": 5775,
      "Ġingred": 5776,
      "De": 5777,
      "case": 5778,
      "rim": 5779,
      "Ġtour": 5780,
      "Ġrestrict": 5781,
      "Ġweak": 5782,
      "âĢĿ.": 5783,
      "Ġinstr": 5784,
      "Ġcertainly": 5785,
      "Ġobserved": 5786,
      "Ġweights": 5787,
      "ructions": 5788,
      "Ġsynt": 5789,
      "coming": 5790,
      "ocket": 5791,
      "Ġenhance": 5792,
      "68": 5793,
      "Ġsyn": 5794,
      "Ġpractical": 5795,
      "Ġfoods": 5796,
      "Ġcustomer": 5797,
      "Joined": 5798,
      "Ġpull": 5799,
      "Ġbool": 5800,
      "Ġevolution": 5801,
      "ĠYes": 5802,
      "ĠVol": 5803,
      "Ġexpert": 5804,
      "Ġlose": 5805,
      "Ġchrom": 5806,
      "Ġsites": 5807,
      "ypes": 5808,
      "sequences": 5809,
      "Ġinequ": 5810,
      "icit": 5811,
      "ilk": 5812,
      "Ġglo": 5813,
      "rays": 5814,
      "ĠSocial": 5815,
      "Ġweap": 5816,
      "ĠWest": 5817,
      "Ġresist": 5818,
      "Ġcarbon": 5819,
      "Ġmoves": 5820,
      "Ġtwice": 5821,
      "Once": 5822,
      "Ġpowers": 5823,
      "files": 5824,
      "she": 5825,
      "Ġhttps": 5826,
      "ĠServ": 5827,
      "Ġpolice": 5828,
      "Ġacceleration": 5829,
      "Che": 5830,
      "iance": 5831,
      "Ġhidden": 5832,
      "Ġclin": 5833,
      "Ġperm": 5834,
      "Ġagent": 5835,
      "plicated": 5836,
      "ĠRepublic": 5837,
      "ĠPractice": 5838,
      "54": 5839,
      "Par": 5840,
      "la": 5841,
      "spec": 5842,
      "Ġsufficient": 5843,
      "izz": 5844,
      "Ġapart": 5845,
      "Ġprotein": 5846,
      "imensional": 5847,
      "replace": 5848,
      "lements": 5849,
      "Ġrepl": 5850,
      "Ġchosen": 5851,
      "Ġarr": 5852,
      "ĠJew": 5853,
      "Ġrows": 5854,
      "Ġforest": 5855,
      "ĠParameters": 5856,
      "Ġpet": 5857,
      "inese": 5858,
      "Ġbrother": 5859,
      "Ġmorning": 5860,
      "Ġencourage": 5861,
      "ĠFe": 5862,
      "-------": 5863,
      "ĠComple": 5864,
      "Ġlanguages": 5865,
      "ĠAfrican": 5866,
      "ĠJanuary": 5867,
      "Ġthr": 5868,
      "Ġnorth": 5869,
      "this": 5870,
      "Ġcareer": 5871,
      "Ġdescription": 5872,
      "Ġfacilit": 5873,
      "Ġphenomen": 5874,
      "CL": 5875,
      "sigma": 5876,
      "ams": 5877,
      "Ġsettings": 5878,
      "Ġsmooth": 5879,
      "Ġgun": 5880,
      "Ġcommer": 5881,
      "appy": 5882,
      "Ġcorrel": 5883,
      "Ġshowed": 5884,
      "ĉĉĉ": 5885,
      "Ġfloor": 5886,
      "ĠStudents": 5887,
      "partial": 5888,
      "ML": 5889,
      "Ġviolence": 5890,
      "}=\\": 5891,
      "Ġmarg": 5892,
      "strip": 5893,
      "ĠSur": 5894,
      "Ġsubtract": 5895,
      "Ġmeeting": 5896,
      "Ġpromoting": 5897,
      "ĠMathematics": 5898,
      "Ġcomprehens": 5899,
      "Course": 5900,
      "dep": 5901,
      "iate": 5902,
      "eli": 5903,
      "Ġvote": 5904,
      "Ġkn": 5905,
      "Ġgenerations": 5906,
      "Ġdeviation": 5907,
      "Ġfaced": 5908,
      "She": 5909,
      "UM": 5910,
      "Â²": 5911,
      "Ġperp": 5912,
      "Ġformer": 5913,
      "Ġstatements": 5914,
      "Ġexamine": 5915,
      "Ġbeliefs": 5916,
      "Ġinvestment": 5917,
      "*-": 5918,
      "pes": 5919,
      "eless": 5920,
      "akers": 5921,
      "åĪ": 5922,
      "ingly": 5923,
      "Ġkill": 5924,
      "Ġdoctor": 5925,
      "ĠUnion": 5926,
      "Ġdownload": 5927,
      "Ġextract": 5928,
      "Ġrelease": 5929,
      "iders": 5930,
      "Ġpregn": 5931,
      "Ġoffering": 5932,
      "Ġcontinues": 5933,
      "ĠWho": 5934,
      "Ġmotiv": 5935,
      "oute": 5936,
      "Ġbag": 5937,
      "Ġconstra": 5938,
      "Ġinterests": 5939,
      "Ġprofit": 5940,
      "GB": 5941,
      "Go": 5942,
      "^{\\": 5943,
      "win": 5944,
      "iled": 5945,
      "Ġforget": 5946,
      "ifies": 5947,
      "Ġmeat": 5948,
      "Ġseeing": 5949,
      "ĠExamples": 5950,
      "ðĿĳ": 5951,
      "ĠJuly": 5952,
      "rep": 5953,
      "ĠĠĠĠĠĠĠĠĠĠĠĠĠ": 5954,
      "ĠAP": 5955,
      "ĠNOT": 5956,
      "Ġplastic": 5957,
      "script": 5958,
      "Ġflat": 5959,
      "Ġshowing": 5960,
      "Ġdelve": 5961,
      "æķ°": 5962,
      "500": 5963,
      "lor": 5964,
      "rat": 5965,
      "ocation": 5966,
      "ĠNovember": 5967,
      "Ġleads": 5968,
      "ipped": 5969,
      "Ġtiny": 5970,
      "Ġbank": 5971,
      "ructure": 5972,
      "Ġguy": 5973,
      "Ġphysics": 5974,
      "Ġreported": 5975,
      "Ġhorizontal": 5976,
      "92": 5977,
      "Or": 5978,
      "tk": 5979,
      "icip": 5980,
      "ĠTHE": 5981,
      "ulary": 5982,
      "Ġquery": 5983,
      "Ġreligion": 5984,
      "Ġincreasingly": 5985,
      "Your": 5986,
      "hab": 5987,
      "Ġsession": 5988,
      "std": 5989,
      "ildren": 5990,
      "Ġreducing": 5991,
      "Ġsupposed": 5992,
      "Ġurl": 5993,
      "Ġfundamental": 5994,
      "Ġengineering": 5995,
      "ĠIntegr": 5996,
      "tilde": 5997,
      "encing": 5998,
      "ĠBoth": 5999,
      "Ġsevere": 6000,
      "Ġrelatively": 6001,
      "ĠDecember": 6002,
      "Ġexperienced": 6003,
      "Ġhabit": 6004,
      "ĠAnt": 6005,
      "ultane": 6006,
      "Ġliber": 6007,
      "Ġswitch": 6008,
      "ĠCalculate": 6009,
      "CE": 6010,
      "}-": 6011,
      "inity": 6012,
      "iments": 6013,
      "Ġjoin": 6014,
      "ribe": 6015,
      "poses": 6016,
      "curs": 6017,
      "Ġcombined": 6018,
      "Ġrequirements": 6019,
      "stac": 6020,
      "Ġequipment": 6021,
      "Ġtechnique": 6022,
      "Ġatmosp": 6023,
      "Ð¸": 6024,
      "ĠDoes": 6025,
      "Ġenum": 6026,
      "Ġdepends": 6027,
      "Ġvectors": 6028,
      "ĠGreek": 6029,
      "isc": 6030,
      "chrom": 6031,
      "Ġalt": 6032,
      "Ġexcess": 6033,
      "ĠEv": 6034,
      "Ġviews": 6035,
      "'))": 6036,
      "91": 6037,
      "Ġcovered": 6038,
      "icated": 6039,
      "Ġspend": 6040,
      "Ġ{'": 6041,
      "ĠSecond": 6042,
      "ĠShaw": 6043,
      "Ġgrand": 6044,
      "Ġcomplexity": 6045,
      "Ġperspective": 6046,
      "Up": 6047,
      "inations": 6048,
      "Ġnor": 6049,
      "Ġwealth": 6050,
      "Ġunivers": 6051,
      "Ġfocused": 6052,
      "Ġjobs": 6053,
      "ocabulary": 6054,
      "total": 6055,
      "inte": 6056,
      "Ġhun": 6057,
      "select": 6058,
      "sequence": 6059,
      "Ġshif": 6060,
      "ateral": 6061,
      "Ġprocessing": 6062,
      "ĠIndian": 6063,
      "Ġcausing": 6064,
      "Ġerrors": 6065,
      "ias": 6066,
      "Ġcup": 6067,
      "iforn": 6068,
      "ĠMich": 6069,
      "ĠLondon": 6070,
      "draw": 6071,
      "ford": 6072,
      "Ġbud": 6073,
      "Ġsty": 6074,
      "tee": 6075,
      "Ġscores": 6076,
      "Ġseeking": 6077,
      "token": 6078,
      "Ġcapable": 6079,
      "Ġcareful": 6080,
      "Ġmultiplication": 6081,
      "aughter": 6082,
      "ĠStudy": 6083,
      "Ġfrequently": 6084,
      "Ġwife": 6085,
      "ceived": 6086,
      "Ġrig": 6087,
      "aint": 6088,
      "ĠDist": 6089,
      "Ġshut": 6090,
      "$$.": 6091,
      "Ġpoll": 6092,
      "center": 6093,
      "Ġevaluate": 6094,
      "ĠAND": 6095,
      "\"),": 6096,
      "sv": 6097,
      "plate": 6098,
      "Ġobj": 6099,
      "Ġrespectively": 6100,
      "lock": 6101,
      "Ġloved": 6102,
      "ĠUs": 6103,
      "dy": 6104,
      "Ġboy": 6105,
      "asion": 6106,
      "Ġ-*-": 6107,
      "ĠJe": 6108,
      "ruary": 6109,
      "Ġrare": 6110,
      "Ġseek": 6111,
      "Ġdecide": 6112,
      "Ġspiritual": 6113,
      "Ġwaiting": 6114,
      "Tr": 6115,
      "desc": 6116,
      "stack": 6117,
      "Ġvast": 6118,
      "Ġtransformation": 6119,
      "ĠMaybe": 6120,
      "abetes": 6121,
      "Ġnuclear": 6122,
      "first": 6123,
      "Ġmel": 6124,
      "Ġchannel": 6125,
      "Ġshift": 6126,
      "Ġraised": 6127,
      "Ġhypothesis": 6128,
      "Ġcollaboration": 6129,
      "greg": 6130,
      "imation": 6131,
      "Ġstick": 6132,
      "ĠSk": 6133,
      "Ġalb": 6134,
      "Ġplus": 6135,
      "Ġspeech": 6136,
      "pring": 6137,
      "Ġmessages": 6138,
      "ĠKeep": 6139,
      "New": 6140,
      "soft": 6141,
      "Ġpand": 6142,
      "Ġbought": 6143,
      "Ġbaby": 6144,
      "Ġmale": 6145,
      "asy": 6146,
      "ĠTop": 6147,
      "ĠAB": 6148,
      "ocal": 6149,
      "ppose": 6150,
      "dec": 6151,
      "Ġ&=": 6152,
      "scale": 6153,
      "ĠWork": 6154,
      "ĠPhil": 6155,
      "Ġinternet": 6156,
      "51": 6157,
      "Ġhydro": 6158,
      "ĠLab": 6159,
      "ĠGiven": 6160,
      "ĠJour": 6161,
      "oves": 6162,
      "Ġassist": 6163,
      "Ġoccup": 6164,
      "Ġhyper": 6165,
      "spe": 6166,
      "ths": 6167,
      "Ġrul": 6168,
      "Ġshad": 6169,
      "Ġmeasurement": 6170,
      "Ġdiseases": 6171,
      "fortunately": 6172,
      "Ġpictures": 6173,
      "Ġfostering": 6174,
      "Ġ~": 6175,
      "Ġmsg": 6176,
      "Ġoverl": 6177,
      "Ġimplementation": 6178,
      "Ġholds": 6179,
      "ĠHelp": 6180,
      ".\")": 6181,
      "Since": 6182,
      "lig": 6183,
      "ront": 6184,
      "Ġ..": 6185,
      "ĠAI": 6186,
      "ithmetic": 6187,
      "Ġjoint": 6188,
      "Ġcorrectly": 6189,
      "Ġmotor": 6190,
      "ifornia": 6191,
      "äº": 6192,
      "Ġsouth": 6193,
      "ĠNov": 6194,
      "Ġfilename": 6195,
      "Ġexcell": 6196,
      "Ġexpressions": 6197,
      "Ġaffected": 6198,
      "Ġawareness": 6199,
      "Ġdram": 6200,
      "icious": 6201,
      "Ġhaven": 6202,
      "Ġdistributed": 6203,
      "Ġemotions": 6204,
      "HT": 6205,
      "cap": 6206,
      "tree": 6207,
      "real": 6208,
      "Ġspot": 6209,
      "Ġproperly": 6210,
      "Ġprogramming": 6211,
      "Ġlayers": 6212,
      "Ġadults": 6213,
      "Add": 6214,
      "zero": 6215,
      "eding": 6216,
      "Ġcompare": 6217,
      "Ġcycle": 6218,
      "TION": 6219,
      "organ": 6220,
      "Ġgather": 6221,
      "berg": 6222,
      "Ġclick": 6223,
      "Ġinteract": 6224,
      "exec": 6225,
      "property": 6226,
      "Ġserver": 6227,
      "ĠCenter": 6228,
      "Ġ----------": 6229,
      "Ġtoken": 6230,
      "ĠTV": 6231,
      "Ġkept": 6232,
      "Ġcreates": 6233,
      "layer": 6234,
      "Ġmapping": 6235,
      "oses": 6236,
      "Ġexplained": 6237,
      "Ġtherapy": 6238,
      "arter": 6239,
      "Ġalign": 6240,
      "ogether": 6241,
      "aked": 6242,
      "Ġlimits": 6243,
      "Ġpresident": 6244,
      "Ġrecords": 6245,
      "Ġintroduced": 6246,
      "Ġobtained": 6247,
      "cher": 6248,
      "ĠBel": 6249,
      "Ġcontrast": 6250,
      "Ġprices": 6251,
      "Ġscene": 6252,
      "Ġ2019": 6253,
      "Ġtemp": 6254,
      "dden": 6255,
      "sk": 6256,
      "Ġpuzz": 6257,
      "adata": 6258,
      "udos": 6259,
      "ĠChinese": 6260,
      "Ġkeys": 6261,
      "Note": 6262,
      "Return": 6263,
      "Ñģ": 6264,
      "Ġtang": 6265,
      "Ġtraditions": 6266,
      "Ġhelpful": 6267,
      "Ġacademic": 6268,
      "bability": 6269,
      "ij": 6270,
      "rated": 6271,
      "itors": 6272,
      "Ġcourt": 6273,
      "Ġquantity": 6274,
      "Ġdrugs": 6275,
      "ĠInternational": 6276,
      "Ġbillion": 6277,
      "Ġgarden": 6278,
      "det": 6279,
      "ado": 6280,
      "Ġ500": 6281,
      "Ġexplanation": 6282,
      "Ġfacts": 6283,
      "Ġcorpor": 6284,
      "Ġgenerated": 6285,
      "State": 6286,
      "Ġcharacteristics": 6287,
      "orry": 6288,
      "Ġstack": 6289,
      "ĠBro": 6290,
      "Ġ\"[": 6291,
      "ĠNet": 6292,
      "imple": 6293,
      "Ġ[\"": 6294,
      "Ġideal": 6295,
      "Ġïĥº": 6296,
      "ĠSimilarly": 6297,
      "zeros": 6298,
      "ixture": 6299,
      "iences": 6300,
      "Ġunf": 6301,
      "Ġexpressed": 6302,
      "Ġmagnitude": 6303,
      "Ġneighbor": 6304,
      "pow": 6305,
      "anted": 6306,
      "features": 6307,
      "Ġwheel": 6308,
      "Ġmodule": 6309,
      "Ġcream": 6310,
      "Ġgeneration": 6311,
      "ĠIslam": 6312,
      "Ġpurposes": 6313,
      "Ġeducational": 6314,
      "Ġgenetic": 6315,
      "Ġdogs": 6316,
      "ĠAfrica": 6317,
      "OC": 6318,
      "Well": 6319,
      "Ġmouth": 6320,
      "asp": 6321,
      "Ġconvent": 6322,
      "Ġchurch": 6323,
      "Ġclient": 6324,
      "ĠĠĠĠĠĠĠĠĠĠĠĠĠĠĠĠĠĠĠĠĠĠĠĠĠĠĠĠĠĠĠ": 6325,
      "Ġintegration": 6326,
      "Ġperspectives": 6327,
      "Ġcra": 6328,
      "Ġwish": 6329,
      "icking": 6330,
      "omic": 6331,
      "semb": 6332,
      "ĠCong": 6333,
      "Ġcondu": 6334,
      "Ġsudden": 6335,
      "Ġmetal": 6336,
      "tical": 6337,
      "Ġmixed": 6338,
      "Ġregression": 6339,
      "ĠEast": 6340,
      "Ġresol": 6341,
      "ĠStand": 6342,
      "Ġtransition": 6343,
      "Ġexamining": 6344,
      "anguage": 6345,
      "Ġshaping": 6346,
      "Ġdiagram": 6347,
      "Yes": 6348,
      "eah": 6349,
      "Ġcro": 6350,
      "Ġeight": 6351,
      "ractions": 6352,
      "Ġstaff": 6353,
      "Ġarrange": 6354,
      "Ġdiff": 6355,
      "Ġwatching": 6356,
      "ĠLearning": 6357,
      "72": 6358,
      "];": 6359,
      "Ġnodes": 6360,
      "ĠAlex": 6361,
      "ĠMet": 6362,
      "Ġnoise": 6363,
      "Ġinvent": 6364,
      "Ġpossess": 6365,
      ")),": 6366,
      "onents": 6367,
      "Ġinverse": 6368,
      "ĠPlease": 6369,
      "Ġacid": 6370,
      "Ġpairs": 6371,
      "+\\": 6372,
      "`.": 6373,
      "delta": 6374,
      "ĠHouse": 6375,
      "Ġdisorder": 6376,
      "Ġpresented": 6377,
      "Ġmeasured": 6378,
      "reshold": 6379,
      "Ġheavy": 6380,
      "74": 6381,
      "={": 6382,
      "rict": 6383,
      "sign": 6384,
      "çĶ": 6385,
      "Ġfiction": 6386,
      "Ġinner": 6387,
      "ims": 6388,
      "estic": 6389,
      "perm": 6390,
      "Ġrelax": 6391,
      "Ġmajority": 6392,
      "Ġïĥª": 6393,
      "Act": 6394,
      "drop": 6395,
      "Ġpp": 6396,
      "Ġmig": 6397,
      "ico": 6398,
      "ilon": 6399,
      "ĠSl": 6400,
      "irt": 6401,
      "Ġuniverse": 6402,
      "Ġpartial": 6403,
      "Ġalgorithms": 6404,
      "Ġderivative": 6405,
      "ira": 6406,
      "isl": 6407,
      "Ġseven": 6408,
      "Ġintric": 6409,
      "Ġ48": 6410,
      "Ġknowing": 6411,
      "Ġlisten": 6412,
      "Reg": 6413,
      "ĠPlan": 6414,
      "Ġwalking": 6415,
      "May": 6416,
      "Point": 6417,
      "oices": 6418,
      "orig": 6419,
      "Ġbow": 6420,
      "arp": 6421,
      "Ġvill": 6422,
      "ogue": 6423,
      "Ġinterview": 6424,
      "Ġmoments": 6425,
      "CC": 6426,
      "Line": 6427,
      "Ġfont": 6428,
      "utils": 6429,
      "Ġchain": 6430,
      "ĠLat": 6431,
      "Ġcalculation": 6432,
      "Ġserves": 6433,
      "Ġimproved": 6434,
      "Ġcamera": 6435,
      "IST": 6436,
      "PR": 6437,
      "aming": 6438,
      "Ġsegment": 6439,
      "ĠOpen": 6440,
      "Ġthemes": 6441,
      "ribution": 6442,
      "Ġimg": 6443,
      "}}$": 6444,
      "ĠAnalysis": 6445,
      "ĠDesign": 6446,
      "Ġinequality": 6447,
      "Are": 6448,
      "band": 6449,
      "lat": 6450,
      "åĨ": 6451,
      "aran": 6452,
      "ĠSun": 6453,
      "ĠBig": 6454,
      "Ġremoved": 6455,
      "Ġboundary": 6456,
      "Ġfemale": 6457,
      "Mon": 6458,
      "host": 6459,
      "rition": 6460,
      "Ġflex": 6461,
      "Ġmort": 6462,
      "ĠJames": 6463,
      "labels": 6464,
      "9999": 6465,
      "Ġhighest": 6466,
      "Ġentirely": 6467,
      ".'": 6468,
      "faces": 6469,
      "mult": 6470,
      "pare": 6471,
      "Î¸": 6472,
      "Ġpray": 6473,
      "Ġpros": 6474,
      "ĠWrite": 6475,
      "ĠRet": 6476,
      "ĠVer": 6477,
      "ribed": 6478,
      "Ġrecip": 6479,
      "prime": 6480,
      "world": 6481,
      "Ġpresence": 6482,
      "Ġseemed": 6483,
      "Ġcollabor": 6484,
      "making": 6485,
      "Ġhex": 6486,
      "rome": 6487,
      "conf": 6488,
      "Ġaccuracy": 6489,
      "Ġrelation": 6490,
      "pathy": 6491,
      "Ġoptional": 6492,
      "ĠCanada": 6493,
      "ĠDisc": 6494,
      "Given": 6495,
      "Te": 6496,
      "hist": 6497,
      "Ġtiss": 6498,
      "anish": 6499,
      "Ġbot": 6500,
      "ĠMax": 6501,
      "ĠDNA": 6502,
      "wood": 6503,
      "Ġstatistics": 6504,
      "Ġextremely": 6505,
      "fill": 6506,
      "rary": 6507,
      "è®": 6508,
      "enth": 6509,
      "Ġsimultane": 6510,
      "Ġliquid": 6511,
      "Ġnoticed": 6512,
      "aks": 6513,
      "Ġreserv": 6514,
      "Ġagric": 6515,
      "Ġserved": 6516,
      "Ġcommonly": 6517,
      "Ġgirls": 6518,
      "Last": 6519,
      "Ġpun": 6520,
      "ummy": 6521,
      "Ġalcohol": 6522,
      "ĠThom": 6523,
      "racing": 6524,
      "Ġconsidering": 6525,
      "ĠCalifornia": 6526,
      "bug": 6527,
      "fess": 6528,
      "source": 6529,
      "Ġcooking": 6530,
      "agon": 6531,
      "ĠGr": 6532,
      "Ġenable": 6533,
      "ĠInc": 6534,
      "ears": 6535,
      "Ġfoundation": 6536,
      "Ġprimarily": 6537,
      "62": 6538,
      "samples": 6539,
      "Ġselling": 6540,
      "Ġmo": 6541,
      "Ġconsists": 6542,
      "sort": 6543,
      "Ġ64": 6544,
      "Ġelimin": 6545,
      "Ġshel": 6546,
      "Ġurban": 6547,
      "Ġadvantage": 6548,
      "Ġdie": 6549,
      "ĠTri": 6550,
      "ĠGreen": 6551,
      "ĠOh": 6552,
      "lower": 6553,
      "Ġsymbols": 6554,
      "ĠExper": 6555,
      "Ġparticles": 6556,
      "Ġresponsibility": 6557,
      "ĠGeorge": 6558,
      "ĠĠĠĠĠĠĠĠĠĠ": 6559,
      "Ġsports": 6560,
      "Ġgreatest": 6561,
      "Conclusion": 6562,
      "Ġrecognize": 6563,
      "ĠGoogle": 6564,
      "ĠMulti": 6565,
      "83": 6566,
      "EC": 6567,
      "mic": 6568,
      "Ġcars": 6569,
      "Ġgene": 6570,
      "ĠWhe": 6571,
      "Ġsections": 6572,
      "ãĢĤ": 6573,
      "Ġcommercial": 6574,
      "Rem": 6575,
      "Ġstation": 6576,
      "Ġspeaking": 6577,
      "Ġ{\"": 6578,
      "ĠProgram": 6579,
      "Ġdimension": 6580,
      "ĠFebruary": 6581,
      "1000": 6582,
      "Sum": 6583,
      "isk": 6584,
      "ĠSar": 6585,
      "Ġ120": 6586,
      "ĠRev": 6587,
      "Ġmostly": 6588,
      "Ġprepared": 6589,
      "%.": 6590,
      "non": 6591,
      "hent": 6592,
      "Ġforg": 6593,
      "ĠGen": 6594,
      "Ġsolar": 6595,
      "Ġclosely": 6596,
      "Ġconsistent": 6597,
      "cular": 6598,
      "herent": 6599,
      "ĠAD": 6600,
      "Ġ((": 6601,
      "ĠPoint": 6602,
      "ander": 6603,
      "Ġimpossible": 6604,
      "Ġclar": 6605,
      "Ġpartners": 6606,
      "ĠVari": 6607,
      "https": 6608,
      "åĲ": 6609,
      "Ġconversion": 6610,
      "Ġnotation": 6611,
      "Ġ300": 6612,
      "ĠExcel": 6613,
      "Ġcoordinate": 6614,
      "Ġincredible": 6615,
      "Ġprofessionals": 6616,
      "Acc": 6617,
      "Ġok": 6618,
      "Ġpal": 6619,
      "Ġindeed": 6620,
      "Ġpreviously": 6621,
      "Part": 6622,
      "ca": 6623,
      "ĠBi": 6624,
      "Ġselection": 6625,
      "Ġunless": 6626,
      "Ġroles": 6627,
      "Ġtriangles": 6628,
      "Ġlogger": 6629,
      "Ġbirds": 6630,
      "Before": 6631,
      "ĠAustralia": 6632,
      "mu": 6633,
      "ĠBar": 6634,
      "ĠThink": 6635,
      "ĠWeb": 6636,
      "Ġparams": 6637,
      "Ġemployees": 6638,
      "Ġsustainable": 6639,
      "73": 6640,
      ":]": 6641,
      "core": 6642,
      "ĠName": 6643,
      "ogram": 6644,
      "Ġpopulations": 6645,
      "Ġgone": 6646,
      "Ġbutter": 6647,
      "angular": 6648,
      "cknow": 6649,
      "ĠRec": 6650,
      "Ġrealized": 6651,
      "nam": 6652,
      "uing": 6653,
      "orough": 6654,
      "icular": 6655,
      "Ġlock": 6656,
      "oded": 6657,
      "Ġexhib": 6658,
      "ĠPark": 6659,
      "Ġenem": 6660,
      "Ġ75": 6661,
      "Ġends": 6662,
      "Ġperformed": 6663,
      "Ġintelligence": 6664,
      "page": 6665,
      "onym": 6666,
      "ĠST": 6667,
      "Ġongoing": 6668,
      "Ġalpha": 6669,
      "ĠMac": 6670,
      "ĠLife": 6671,
      "Ġmanip": 6672,
      "Ġcultiv": 6673,
      "Ġsorted": 6674,
      "ĠWilliam": 6675,
      "des": 6676,
      "eq": 6677,
      "nce": 6678,
      "Ġvision": 6679,
      "ĠTheory": 6680,
      "Ġabortion": 6681,
      "Ġjump": 6682,
      "Ġenvironments": 6683,
      "Ġinfo": 6684,
      "related": 6685,
      "Ġworksheet": 6686,
      "Number": 6687,
      "Ġultimately": 6688,
      "Ġefficiency": 6689,
      "Ġcatch": 6690,
      "ĠTake": 6691,
      "ribute": 6692,
      "Ġfindings": 6693,
      "Ġblocks": 6694,
      "ĠAnother": 6695,
      "ĠÎ¸": 6696,
      "ĠCentral": 6697,
      "Post": 6698,
      "\\$": 6699,
      "stances": 6700,
      "ulas": 6701,
      "ĠElect": 6702,
      "ĠGovern": 6703,
      "Ġenab": 6704,
      "ificial": 6705,
      "Ġoptimal": 6706,
      "Ġadventure": 6707,
      "Ġreleased": 6708,
      "Ġphilosop": 6709,
      "icon": 6710,
      "ads": 6711,
      "Ġexchange": 6712,
      "ĠMicro": 6713,
      "alls": 6714,
      "Ġabilities": 6715,
      "ĠOff": 6716,
      "Ġminute": 6717,
      "Ġruns": 6718,
      "ipping": 6719,
      "App": 6720,
      "wer": 6721,
      "stood": 6722,
      "ĠSometimes": 6723,
      "ague": 6724,
      "linear": 6725,
      "Ġ2005": 6726,
      "Ġinnovative": 6727,
      "Ġscenario": 6728,
      "Ġbrief": 6729,
      "Ġdiversity": 6730,
      "ashington": 6731,
      "iat": 6732,
      "oom": 6733,
      "ura": 6734,
      "uous": 6735,
      "rey": 6736,
      "Ġmac": 6737,
      "learn": 6738,
      "Ġcolour": 6739,
      "rices": 6740,
      "Ġsupported": 6741,
      "Ġboundaries": 6742,
      "sequently": 6743,
      "ĠGerman": 6744,
      "pm": 6745,
      "rum": 6746,
      "you": 6747,
      "itage": 6748,
      "Ġspring": 6749,
      "}$.": 6750,
      "ashion": 6751,
      "ä»£": 6752,
      "Introduction": 6753,
      "Value": 6754,
      "69": 6755,
      "Ġreached": 6756,
      "char": 6757,
      "ĠFree": 6758,
      "iplying": 6759,
      "Ġcorner": 6760,
      "Ġenumerate": 6761,
      "Bob": 6762,
      "font": 6763,
      "Ġdied": 6764,
      "olf": 6765,
      "ĠLesson": 6766,
      "Ġliver": 6767,
      "Ġrain": 6768,
      "Ġworldwide": 6769,
      "Ġowners": 6770,
      "Ġmovements": 6771,
      "ĠOnly": 6772,
      "Ġjournal": 6773,
      "Ġsecure": 6774,
      "Ġincorporating": 6775,
      "Ġquadratic": 6776,
      "house": 6777,
      "sys": 6778,
      "Ġmission": 6779,
      "ĠCap": 6780,
      "Ġshot": 6781,
      "inder": 6782,
      "Ġhistor": 6783,
      "Ġcategory": 6784,
      "Ġprocedure": 6785,
      "Ġnarratives": 6786,
      "big": 6787,
      "Ġ):": 6788,
      "Ġwinter": 6789,
      "iday": 6790,
      "ĠSection": 6791,
      "Ġadvice": 6792,
      "auss": 6793,
      "Ġsac": 6794,
      "Ġcoding": 6795,
      "Thanks": 6796,
      "ĠPlay": 6797,
      "Ġbegins": 6798,
      "Ġtuple": 6799,
      "ilateral": 6800,
      "ĠFin": 6801,
      "ĠGraph": 6802,
      "ĠOR": 6803,
      "Ġinteraction": 6804,
      "Ġdriving": 6805,
      "transform": 6806,
      "ĠObama": 6807,
      "Ġexcellent": 6808,
      "Cor": 6809,
      "TC": 6810,
      "Âĳ": 6811,
      "Ġfirm": 6812,
      "Ġfederal": 6813,
      "ĠTom": 6814,
      "ulner": 6815,
      "Ġcomplicated": 6816,
      "Ġfeels": 6817,
      "Ġinstant": 6818,
      "ĠExerc": 6819,
      "Ġarticles": 6820,
      "Ġfruit": 6821,
      "79": 6822,
      "aud": 6823,
      "event": 6824,
      "}.": 6825,
      "Ġsnow": 6826,
      "Ġindu": 6827,
      "rove": 6828,
      "ĠTags": 6829,
      "Ġstim": 6830,
      "Ġstored": 6831,
      "ĠBC": 6832,
      "Ġlogic": 6833,
      "Ġposts": 6834,
      "Ġverb": 6835,
      "ĠðŁ": 6836,
      "Ġwit": 6837,
      "Ġfix": 6838,
      "ette": 6839,
      "ulating": 6840,
      "logger": 6841,
      "ĠGeneral": 6842,
      "Ġinstitutions": 6843,
      "Def": 6844,
      "Gener": 6845,
      "Ġbattle": 6846,
      "Ġthrow": 6847,
      "Ġnerv": 6848,
      "ĠUK": 6849,
      "ATH": 6850,
      "Ġcoefficient": 6851,
      "Ġabsolute": 6852,
      "Ġingredients": 6853,
      "Math": 6854,
      "ĠRun": 6855,
      "Ġclub": 6856,
      "Ġsummary": 6857,
      "Ġrepeated": 6858,
      "Sim": 6859,
      "uh": 6860,
      "âĨĴ": 6861,
      "Ġring": 6862,
      "ĠNext": 6863,
      "ographic": 6864,
      "Ġopinion": 6865,
      "63": 6866,
      "UN": 6867,
      "æĸ": 6868,
      "ednes": 6869,
      "ĠMag": 6870,
      "comple": 6871,
      "Ġdestroy": 6872,
      "Ġaccompl": 6873,
      "Total": 6874,
      "cking": 6875,
      "lege": 6876,
      "Ġgod": 6877,
      "Ġstorage": 6878,
      "ĠLast": 6879,
      "Ġprev": 6880,
      "Ġunderlying": 6881,
      "Ġequals": 6882,
      "Ġcritic": 6883,
      "Ġaddressing": 6884,
      "Ġgeometry": 6885,
      "ä½": 6886,
      "Ġbright": 6887,
      "Ġhel": 6888,
      "ĠHy": 6889,
      "ĠLim": 6890,
      "ĠGMAT": 6891,
      "Ġconsc": 6892,
      "Ġdiscussed": 6893,
      "Ġteams": 6894,
      "ocratic": 6895,
      "Log": 6896,
      "ïĢ": 6897,
      "Ġhomes": 6898,
      "apes": 6899,
      "ĠCommon": 6900,
      "âĪļ": 6901,
      "Ġexistence": 6902,
      "Ġclaims": 6903,
      "Ġprinciple": 6904,
      "Ġhundreds": 6905,
      "ugg": 6906,
      "Ġtaught": 6907,
      "Ġpounds": 6908,
      "ĠĠĠĠĠĠĠĠĠĠĠĠĊ": 6909,
      "vector": 6910,
      "Ġconsequences": 6911,
      "Ġneuro": 6912,
      "eps": 6913,
      "Ġobser": 6914,
      "fficients": 6915,
      "vironment": 6916,
      "Ġprompt": 6917,
      "ourage": 6918,
      "Ġresilience": 6919,
      "cil": 6920,
      "ipl": 6921,
      "kens": 6922,
      "Ġcoun": 6923,
      "ĠMex": 6924,
      "deg": 6925,
      "stron": 6926,
      "unday": 6927,
      "ĠEngland": 6928,
      "has": 6929,
      "rons": 6930,
      "Ġpix": 6931,
      "ĠCour": 6932,
      "Ġhearing": 6933,
      "Ġwhenever": 6934,
      "Ġpoet": 6935,
      "Ġcomputers": 6936,
      "Ġpolitics": 6937,
      "AND": 6938,
      "Ġquantum": 6939,
      "Ġaudience": 6940,
      "isation": 6941,
      "search": 6942,
      "amps": 6943,
      "ĠMiddle": 6944,
      "Ġchart": 6945,
      "Ġformal": 6946,
      "Ġbuildings": 6947,
      "ĠIsra": 6948,
      "Ġmarks": 6949,
      "Ġprepare": 6950,
      "Ġpolygon": 6951,
      "ĠDeterm": 6952,
      ",'": 6953,
      "><": 6954,
      "eed": 6955,
      "Ġdtype": 6956,
      "Ġnd": 6957,
      "ĠSuch": 6958,
      "Ġwear": 6959,
      "overty": 6960,
      "Ġvirtual": 6961,
      "well": 6962,
      "Ġ33": 6963,
      "Ġremark": 6964,
      "Ġrealize": 6965,
      "Ġsky": 6966,
      "Ġcalculations": 6967,
      "Color": 6968,
      "Ġsweet": 6969,
      "ednesday": 6970,
      "}[": 6971,
      "Ġfellow": 6972,
      "Ġclock": 6973,
      "Ġsymmet": 6974,
      "Ġappreciation": 6975,
      "Ġrectangle": 6976,
      "ĠDepartment": 6977,
      "query": 6978,
      "ĠExt": 6979,
      "Ġkinds": 6980,
      "Explanation": 6981,
      "81": 6982,
      "ouis": 6983,
      "ĠPal": 6984,
      "ĠWrit": 6985,
      "aph": 6986,
      "ĠRich": 6987,
      "ĠWorks": 6988,
      "Ġthousand": 6989,
      "71": 6990,
      "FF": 6991,
      "SC": 6992,
      "ç»": 6993,
      "itial": 6994,
      "Ġfab": 6995,
      "else": 6996,
      "ĠSan": 6997,
      "Ġvent": 6998,
      "blems": 6999,
      "Ġguys": 7000,
      "Ġbelieved": 7001,
      "Ġconsumption": 7002,
      "SP": 7003,
      "`,": 7004,
      "ropy": 7005,
      "ĠTim": 7006,
      "ĠSoci": 7007,
      "Ġcls": 7008,
      "Ġ[?": 7009,
      "Ġstands": 7010,
      "Ġdeliver": 7011,
      "!)": 7012,
      "(*": 7013,
      "eria": 7014,
      "Ġnative": 7015,
      "ola": 7016,
      "seq": 7017,
      "umps": 7018,
      "riage": 7019,
      "Ġtrick": 7020,
      "ĠKore": 7021,
      "Ġtraffic": 7022,
      "Ġpositions": 7023,
      "ĠOrig": 7024,
      "Ġtemperatures": 7025,
      "Ġmachines": 7026,
      "Ġalbum": 7027,
      "Ð½": 7028,
      "Ġmas": 7029,
      "Ġdb": 7030,
      "Ġlie": 7031,
      "ria": 7032,
      "ĠBob": 7033,
      "ogen": 7034,
      "ĠEngine": 7035,
      "Ġstronger": 7036,
      "Ġconversation": 7037,
      "yl": 7038,
      "alar": 7039,
      "Ġear": 7040,
      "cls": 7041,
      "ĠInstitute": 7042,
      "Ġdisorders": 7043,
      "ATION": 7044,
      "Ġdirectory": 7045,
      "Unit": 7046,
      "Ġ[?]:": 7047,
      "ïĤ": 7048,
      "ĠSpec": 7049,
      "venue": 7050,
      "Ġdynamic": 7051,
      "ĠJapanese": 7052,
      "Ġdiameter": 7053,
      "Ġacknow": 7054,
      "icken": 7055,
      "Ġacts": 7056,
      "Ġsuggests": 7057,
      "Ġfailure": 7058,
      "incip": 7059,
      "Ġwidely": 7060,
      "AA": 7061,
      "Des": 7062,
      "ya": 7063,
      "ÑĢ": 7064,
      "Ġpure": 7065,
      "Ġnone": 7066,
      "Ġreact": 7067,
      "ulum": 7068,
      "Ġ2000": 7069,
      "ĠThree": 7070,
      "Ġexposure": 7071,
      "Ġdiscount": 7072,
      "Ġdiabetes": 7073,
      "Ġskill": 7074,
      "ATE": 7075,
      "Ġsupporting": 7076,
      "Ġmarked": 7077,
      "Ġrepresenting": 7078,
      "Ġbeauty": 7079,
      "ME": 7080,
      "free": 7081,
      "gi": 7082,
      "mes": 7083,
      "itter": 7084,
      "Ġlambda": 7085,
      "sect": 7086,
      "Ġprofile": 7087,
      "usiness": 7088,
      "Ġrough": 7089,
      "ĠFinally": 7090,
      "Ġmanaged": 7091,
      "Ġapplying": 7092,
      "Ġexploration": 7093,
      "Ġbacteria": 7094,
      "Kudos": 7095,
      "ÏĢ": 7096,
      "Ġtension": 7097,
      "initions": 7098,
      "Ġmit": 7099,
      "Ġoffered": 7100,
      "utely": 7101,
      "usr": 7102,
      "Ġkilled": 7103,
      "ĠGroup": 7104,
      "Ġenv": 7105,
      "Ġbutton": 7106,
      "Ġattacks": 7107,
      "Finally": 7108,
      "friend": 7109,
      "ĠFood": 7110,
      "msg": 7111,
      "Ġreports": 7112,
      "ĠArch": 7113,
      "roduct": 7114,
      "Ġbigger": 7115,
      "DataFrame": 7116,
      "Ġtaste": 7117,
      "Ġsequences": 7118,
      "ĠDavid": 7119,
      "Ġath": 7120,
      "Ġmur": 7121,
      "Ġdictionary": 7122,
      "Ġforced": 7123,
      "ĠMot": 7124,
      "Ġusage": 7125,
      "Ġelectrical": 7126,
      "Ġderived": 7127,
      "Ġfoster": 7128,
      "Next": 7129,
      "uits": 7130,
      "Ġtens": 7131,
      "Ġaf": 7132,
      "Ġcash": 7133,
      "Ġstrings": 7134,
      "Ġphr": 7135,
      "See": 7136,
      "Ġdeeply": 7137,
      "Ġfailed": 7138,
      "Ġcircumstances": 7139,
      "Ġdollars": 7140,
      "Ġbudget": 7141,
      "den": 7142,
      "ĠRober": 7143,
      "Ġworse": 7144,
      "ĠStr": 7145,
      "Ġinsert": 7146,
      "Ġconfident": 7147,
      "Ġpaths": 7148,
      "Ġballs": 7149,
      "Ġanalyze": 7150,
      "Ġvertices": 7151,
      ":`": 7152,
      "\\;": 7153,
      "dimensional": 7154,
      "element": 7155,
      "Ġrom": 7156,
      "Ġsad": 7157,
      "alian": 7158,
      "rian": 7159,
      "Ġpassword": 7160,
      "Ġpotentially": 7161,
      "Ġillness": 7162,
      "Ġelectricity": 7163,
      "mask": 7164,
      "Ġwire": 7165,
      "quad": 7166,
      "ĠBook": 7167,
      "Ġuniform": 7168,
      "ĠJun": 7169,
      "$$,": 7170,
      "Ġsubs": 7171,
      "Ġmatters": 7172,
      "ĠReal": 7173,
      "Ġlistening": 7174,
      "Ġclassroom": 7175,
      "Ġ2020": 7176,
      "Ġcreatures": 7177,
      "Ġsitting": 7178,
      "ursday": 7179,
      "Alice": 7180,
      "III": 7181,
      "iosity": 7182,
      "Ġbroader": 7183,
      "Ġpurchase": 7184,
      "Ġuncertain": 7185,
      "Ġpark": 7186,
      "Ġban": 7187,
      "ĠWashington": 7188,
      "elled": 7189,
      "Input": 7190,
      "Ġterrit": 7191,
      "arciss": 7192,
      "Ġradio": 7193,
      "dataset": 7194,
      "ĠModel": 7195,
      "Ġmagic": 7196,
      "Ġunex": 7197,
      "Ġvit": 7198,
      "rier": 7199,
      "ĠBet": 7200,
      "ĠDraw": 7201,
      "ĠError": 7202,
      "udes": 7203,
      "rypt": 7204,
      "\",\"": 7205,
      "Ġinsurance": 7206,
      "Ġ2003": 7207,
      "ĠOrgan": 7208,
      "ognitive": 7209,
      "================================": 7210,
      "Ġlandscape": 7211,
      "SI": 7212,
      "TER": 7213,
      "fo": 7214,
      "Ġpapers": 7215,
      "aste": 7216,
      "ĠPublic": 7217,
      "ĠEss": 7218,
      "Ġdefinitely": 7219,
      "Ġcalculator": 7220,
      "Ġputting": 7221,
      "Ġreferred": 7222,
      "ĠCurrent": 7223,
      "Ġdangerous": 7224,
      "Our": 7225,
      "Ġtall": 7226,
      "Ġment": 7227,
      "Ġapparent": 7228,
      "Ġbrand": 7229,
      "Ġcutting": 7230,
      "Class": 7231,
      "Ġlatest": 7232,
      ",-": 7233,
      "cv": 7234,
      "Ġtheore": 7235,
      "arios": 7236,
      "Ġattend": 7237,
      "Ġengagement": 7238,
      "Ġmillions": 7239,
      "Ġsubjects": 7240,
      "Ġtrouble": 7241,
      "Cons": 7242,
      "Please": 7243,
      "car": 7244,
      "ini": 7245,
      "height": 7246,
      "ĠID": 7247,
      "ĠSquare": 7248,
      "ĠBuild": 7249,
      "indices": 7250,
      "weights": 7251,
      "obs": 7252,
      "ĠArgs": 7253,
      "Ġrevolution": 7254,
      "Ġinnovation": 7255,
      "Ġdynamics": 7256,
      "Ġinformed": 7257,
      "plotlib": 7258,
      "Ġstruggle": 7259,
      "Ġmanufacture": 7260,
      "FA": 7261,
      "TP": 7262,
      "Ġbrow": 7263,
      "Ġgar": 7264,
      "api": 7265,
      "Ġunderstood": 7266,
      "temp": 7267,
      "Ġtexts": 7268,
      "Ġensures": 7269,
      "Ġmassive": 7270,
      "82": 7271,
      "Case": 7272,
      "Ġluck": 7273,
      "Ġlinks": 7274,
      "Ġwhom": 7275,
      "ĠMain": 7276,
      "ĠWhere": 7277,
      "ĠWestern": 7278,
      "Ġkit": 7279,
      "flat": 7280,
      "Ġimproving": 7281,
      "Ġhappening": 7282,
      "Ġabsor": 7283,
      ")/(": 7284,
      "link": 7285,
      "}_": 7286,
      "Ġtur": 7287,
      "Ġhus": 7288,
      "unit": 7289,
      "ĠLicense": 7290,
      "phone": 7291,
      "Ġparties": 7292,
      "âĢĿ,": 7293,
      "rightarrow": 7294,
      "Ġtrip": 7295,
      "Ġfinished": 7296,
      "ĠNews": 7297,
      "ĠGermany": 7298,
      "Py": 7299,
      "Rel": 7300,
      "send": 7301,
      "Ġreform": 7302,
      "outhern": 7303,
      "Ġadop": 7304,
      "Ġscan": 7305,
      "Any": 7306,
      "Ġdiscussions": 7307,
      "Ġestimated": 7308,
      "Ġconservation": 7309,
      "Just": 7310,
      "states": 7311,
      "Ġdealing": 7312,
      "orthern": 7313,
      "ailed": 7314,
      "Ġwriters": 7315,
      "Ġperiods": 7316,
      "ĠInternet": 7317,
      "Ġtrends": 7318,
      "Count": 7319,
      "fn": 7320,
      "Ġiron": 7321,
      "Ġft": 7322,
      "ĠHappy": 7323,
      "ĠLu": 7324,
      "Ġ'__": 7325,
      "ĠStart": 7326,
      "Ġmomentum": 7327,
      "Ġfeedback": 7328,
      "Ġschol": 7329,
      "Ġguidance": 7330,
      "ĠJournal": 7331,
      "Calcul": 7332,
      "Use": 7333,
      "]),": 7334,
      "ka": 7335,
      "wing": 7336,
      "wik": 7337,
      "ĠSpe": 7338,
      "ĠCare": 7339,
      "creen": 7340,
      "Ġsongs": 7341,
      "ĠMichael": 7342,
      "ËĨ": 7343,
      "Ġtag": 7344,
      "orter": 7345,
      "Ġnan": 7346,
      "Ġec": 7347,
      "Ġ\",": 7348,
      "Ġspin": 7349,
      "parser": 7350,
      "Ġenth": 7351,
      "Ġextreme": 7352,
      "ficial": 7353,
      "Ġplatforms": 7354,
      "Ass": 7355,
      "Bl": 7356,
      "GR": 7357,
      "Ġwra": 7358,
      "itoring": 7359,
      "olds": 7360,
      "-----": 7361,
      "Ġreader": 7362,
      "Ġmedium": 7363,
      "gery": 7364,
      "Ġflowers": 7365,
      "Ġsalt": 7366,
      "Ġarchitecture": 7367,
      "Delta": 7368,
      "only": 7369,
      "Ġfert": 7370,
      "Ġdy": 7371,
      "ĠTw": 7372,
      "ĠABC": 7373,
      "Ġarbit": 7374,
      "Ġmovies": 7375,
      "Ġlegisl": 7376,
      "Ġexciting": 7377,
      "ĠCollege": 7378,
      "option": 7379,
      "Ġexercises": 7380,
      "Follow": 7381,
      "uce": 7382,
      "Ġtherm": 7383,
      "Ġcsv": 7384,
      "Ġgall": 7385,
      "ĠPri": 7386,
      "agraph": 7387,
      "Ġcompass": 7388,
      "ĠChurch": 7389,
      "Inte": 7390,
      "Ġcommunicate": 7391,
      "Ġpainting": 7392,
      "Ġfriction": 7393,
      "folder": 7394,
      "Ġsuitable": 7395,
      "Ġregional": 7396,
      "Ġcreativity": 7397,
      "Answer": 7398,
      "cosystem": 7399,
      "Ġnecessarily": 7400,
      "filter": 7401,
      "Ġholding": 7402,
      "Ġaimed": 7403,
      "Ġcomparison": 7404,
      "Ã¢": 7405,
      "Ġvulner": 7406,
      "uesday": 7407,
      "Ġ/>": 7408,
      "Ġtrial": 7409,
      "Ġterror": 7410,
      "ĠSolving": 7411,
      "Ġindicates": 7412,
      "Ġdedicated": 7413,
      "Trans": 7414,
      "Ġtips": 7415,
      "ĠPo": 7416,
      "Ġpolar": 7417,
      "Ġcenturies": 7418,
      "initial": 7419,
      "Ġheader": 7420,
      "Ġdrink": 7421,
      "Ġnavigate": 7422,
      "tf": 7423,
      "âĤ": 7424,
      "hem": 7425,
      "Ġinteractions": 7426,
      "Ġgoods": 7427,
      "ĠÂ·": 7428,
      "Ġatmosphere": 7429,
      "Text": 7430,
      "ĠTotal": 7431,
      "Ġstars": 7432,
      "Ġwilling": 7433,
      "Ġeveryday": 7434,
      "Ġcompleted": 7435,
      "Ġentertain": 7436,
      "ĠAdv": 7437,
      "ĠÂ©": 7438,
      "Ġcris": 7439,
      "Ġfacing": 7440,
      "Ġslowly": 7441,
      "Ġprocedures": 7442,
      "tim": 7443,
      "å¤": 7444,
      "Ġtit": 7445,
      "ĠPath": 7446,
      "ĠFigure": 7447,
      "ĠNon": 7448,
      "Ġdecades": 7449,
      "Ġencounter": 7450,
      "Ġcategories": 7451,
      "Ġwalls": 7452,
      "Ġmedicine": 7453,
      "Ġproposed": 7454,
      "#!": 7455,
      "300": 7456,
      "fast": 7457,
      "ena": 7458,
      "Ġcov": 7459,
      "Ġvibr": 7460,
      "Ġidentified": 7461,
      "ĠAssoci": 7462,
      "Ġwonderful": 7463,
      "PA": 7464,
      "bles": 7465,
      "mail": 7466,
      "Ġran": 7467,
      "feature": 7468,
      "Ġcurious": 7469,
      "ĠConne": 7470,
      "Stud": 7471,
      "Ġargue": 7472,
      "ä¸Ģ": 7473,
      "ĠSolve": 7474,
      "ĠManagement": 7475,
      "zon": 7476,
      "ician": 7477,
      "abel": 7478,
      "Ġship": 7479,
      "ĠLook": 7480,
      "arest": 7481,
      "dule": 7482,
      "Ġaccident": 7483,
      "cluded": 7484,
      "mega": 7485,
      "ĠImport": 7486,
      "datetime": 7487,
      "Ġcoefficients": 7488,
      "Hand": 7489,
      "Using": 7490,
      "amily": 7491,
      "ĠAC": 7492,
      "ĠCreat": 7493,
      "ĠDel": 7494,
      "ĠThank": 7495,
      "Ġsole": 7496,
      "logram": 7497,
      "Ġpresc": 7498,
      "Ġinitially": 7499,
      "AME": 7500,
      "Ġcollections": 7501,
      "Ġlaunch": 7502,
      "Ġdemonstrate": 7503,
      "pattern": 7504,
      "Form": 7505,
      "dates": 7506,
      "Ġwaves": 7507,
      "ĠMem": 7508,
      "Ġwhereas": 7509,
      "Ġmobile": 7510,
      "Mult": 7511,
      "RL": 7512,
      "inent": 7513,
      "Ġfly": 7514,
      "ĠPaul": 7515,
      "ĠBre": 7516,
      "outs": 7517,
      "Ġintended": 7518,
      "argv": 7519,
      "Ġcoast": 7520,
      "------------------------": 7521,
      "ĠLeg": 7522,
      "Ġbroken": 7523,
      "Ġembed": 7524,
      "Ġgained": 7525,
      "Ġannoun": 7526,
      "Ġfairly": 7527,
      "Ġhospital": 7528,
      "store": 7529,
      "Ġreverse": 7530,
      "agent": 7531,
      "Ġdoctors": 7532,
      "debug": 7533,
      "types": 7534,
      "}}$$": 7535,
      "Ġguidelines": 7536,
      ":-": 7537,
      "Ġsau": 7538,
      "Ġdress": 7539,
      "roph": 7540,
      "ĠSen": 7541,
      "ptions": 7542,
      "Ġadvert": 7543,
      "ĠĠĠĠĠĠĠĠĠĠĠĠĠĠĠĠĠ": 7544,
      "Ġdecor": 7545,
      "Ġexperts": 7546,
      "Ġvertex": 7547,
      "ĠPhysics": 7548,
      "Ġinspired": 7549,
      "best": 7550,
      "ÃŃ": 7551,
      "Ġbond": 7552,
      "star": 7553,
      "ĠDig": 7554,
      "Ġneur": 7555,
      "Ġshoot": 7556,
      "ĠOper": 7557,
      "Ġpassion": 7558,
      "Ġleader": 7559,
      "Ġwriter": 7560,
      "Ġamounts": 7561,
      "61": 7562,
      "Ġpoverty": 7563,
      "rive": 7564,
      "Ġmanner": 7565,
      "Ġelev": 7566,
      "Start": 7567,
      "Ġpursu": 7568,
      "Ġinfinite": 7569,
      "Ġregardless": 7570,
      "irectory": 7571,
      "Ġproportion": 7572,
      "ĠRussia": 7573,
      "400": 7574,
      "EX": 7575,
      "seed": 7576,
      "umes": 7577,
      "roups": 7578,
      "Ġteeth": 7579,
      "Ġvariance": 7580,
      "ĠImage": 7581,
      "opyright": 7582,
      "ĠObject": 7583,
      "ĠHomework": 7584,
      "Ġcomfortable": 7585,
      "Output": 7586,
      "åĨĻ": 7587,
      "bound": 7588,
      "dem": 7589,
      "rich": 7590,
      "Ġthin": 7591,
      "section": 7592,
      "ĠUN": 7593,
      "Ġpassing": 7594,
      "Ġgraphs": 7595,
      "âĢ¦âĢ¦": 7596,
      "assertTrue": 7597,
      "Ġafford": 7598,
      "Ġconcentration": 7599,
      "Ġgravity": 7600,
      "Table": 7601,
      "jection": 7602,
      "Ġnic": 7603,
      "riers": 7604,
      "Ġkernel": 7605,
      "Ġ''": 7606,
      "Ġthank": 7607,
      "oyal": 7608,
      "Ġartist": 7609,
      "Ġcomputing": 7610,
      "Ġmeaningful": 7611,
      "connected": 7612,
      "onymous": 7613,
      "incipal": 7614,
      "?âĢĿ": 7615,
      "PL": 7616,
      "è¯": 7617,
      "anes": 7618,
      "Ġnations": 7619,
      "stop": 7620,
      "ĠEconom": 7621,
      "ansion": 7622,
      "Ġcompound": 7623,
      "Ġtradition": 7624,
      "Ġconsult": 7625,
      "ĠAsia": 7626,
      "Ġawait": 7627,
      "Ġoperating": 7628,
      "Ġdescript": 7629,
      "Ġesc": 7630,
      "useum": 7631,
      "Show": 7632,
      "Ġintersection": 7633,
      "Ġbattery": 7634,
      "Ġweapons": 7635,
      "AY": 7636,
      "aser": 7637,
      "Ġhur": 7638,
      "ĠDesc": 7639,
      "Ġobstac": 7640,
      "Ġboxes": 7641,
      "Ġnutri": 7642,
      "xygen": 7643,
      "tri": 7644,
      "Ġbits": 7645,
      "Ġans": 7646,
      "Ġthorough": 7647,
      "ĠTable": 7648,
      "Ġstorm": 7649,
      "ideos": 7650,
      "vals": 7651,
      "cluding": 7652,
      "Ġpersist": 7653,
      "Ġsubstance": 7654,
      "Ġnormally": 7655,
      "PE": 7656,
      "rangle": 7657,
      "ĠBudd": 7658,
      "phant": 7659,
      "ĠSpace": 7660,
      "Ġtreated": 7661,
      "Therefore": 7662,
      "correct": 7663,
      "Ġrein": 7664,
      "Ġfort": 7665,
      "Ġneither": 7666,
      "Ġdescribes": 7667,
      "Ġlinked": 7668,
      "Model": 7669,
      "hi": 7670,
      "kes": 7671,
      "Ġhole": 7672,
      "ĠTry": 7673,
      "Ġroute": 7674,
      "ĠHence": 7675,
      "ago": 7676,
      "ello": 7677,
      "Ġoutcome": 7678,
      "psi": 7679,
      "}}}": 7680,
      "Ġfinite": 7681,
      "Ġtypical": 7682,
      "Ġdivisors": 7683,
      "\"])": 7684,
      "Ab": 7685,
      "IR": 7686,
      "Right": 7687,
      "under": 7688,
      "Ġske": 7689,
      "Ġod": 7690,
      "ellect": 7691,
      "ili": 7692,
      "ĠCD": 7693,
      "ĠLord": 7694,
      "ĠGal": 7695,
      "Ġmemor": 7696,
      "Ġobservation": 7697,
      "Ġsubstant": 7698,
      "Ġignore": 7699,
      "Ġdoubt": 7700,
      "Ġconscious": 7701,
      "Many": 7702,
      "Page": 7703,
      "jac": 7704,
      "mt": 7705,
      "session": 7706,
      "åľ": 7707,
      "ĠAL": 7708,
      "ĠWater": 7709,
      "Ġclim": 7710,
      "ĠVis": 7711,
      "Ġamid": 7712,
      "Ġopening": 7713,
      "à¤¾": 7714,
      "Ġtargets": 7715,
      "Ġdocuments": 7716,
      "Ġvegetables": 7717,
      "ady": 7718,
      "ĠMass": 7719,
      "endicular": 7720,
      "Ġseeds": 7721,
      "Ġkwargs": 7722,
      "omega": 7723,
      "Ġdiscipl": 7724,
      "Ġparticle": 7725,
      "Ġelectronic": 7726,
      "Ġstrengthen": 7727,
      "ĠCongress": 7728,
      "ora": 7729,
      "ida": 7730,
      "ĠAut": 7731,
      "ĠBr": 7732,
      "neg": 7733,
      "Ġsphere": 7734,
      "Ġempathy": 7735,
      "Ġstrict": 7736,
      "Ġapi": 7737,
      "Ġboys": 7738,
      "Ġorganic": 7739,
      "ĠNumbers": 7740,
      "Ġconfiguration": 7741,
      "Ġfaces": 7742,
      "Ġmg": 7743,
      "Ġdut": 7744,
      "Ġrenew": 7745,
      "Ġgram": 7746,
      "Ġstated": 7747,
      "Ġturning": 7748,
      "Ġgovernments": 7749,
      "Ġresponses": 7750,
      "location": 7751,
      "bur": 7752,
      "tag": 7753,
      "ville": 7754,
      "Ġcert": 7755,
      "itative": 7756,
      "Ġecosystem": 7757,
      "Ġyellow": 7758,
      "irty": 7759,
      "Ġdelete": 7760,
      "acebook": 7761,
      "Ġcomposition": 7762,
      "Ġtheme": 7763,
      "Ġinstructions": 7764,
      "Ġsuccessfully": 7765,
      "Ġgenes": 7766,
      "reshape": 7767,
      "Object": 7768,
      "Cur": 7769,
      "gest": 7770,
      "Ġaid": 7771,
      "hered": 7772,
      "roid": 7773,
      "ocracy": 7774,
      "fee": 7775,
      "Ġ$(": 7776,
      "Ġ42": 7777,
      "Ġ400": 7778,
      "ĠView": 7779,
      "Ġbelief": 7780,
      "Ġphotos": 7781,
      "ĠParty": 7782,
      "Ġdivisible": 7783,
      "ĠTechnology": 7784,
      "Ġintersect": 7785,
      "utorial": 7786,
      "\"))": 7787,
      "inet": 7788,
      "Ġsampling": 7789,
      "utors": 7790,
      "Ġordered": 7791,
      "ĠDown": 7792,
      "Ġabuse": 7793,
      "claim": 7794,
      "Inter": 7795,
      "Ġcuriosity": 7796,
      "Ġalongside": 7797,
      "placement": 7798,
      "Ġpayment": 7799,
      "Ġobservations": 7800,
      "traction": 7801,
      "Ġhonest": 7802,
      "Most": 7803,
      "ste": 7804,
      "Ġreward": 7805,
      "Ġisland": 7806,
      "ĠAir": 7807,
      "Ġstreet": 7808,
      "ressive": 7809,
      "Ġsurvey": 7810,
      "ĠEnc": 7811,
      "Ġdebate": 7812,
      "Ġframework": 7813,
      "Ġcollective": 7814,
      "Ġconcerned": 7815,
      "Ġrequests": 7816,
      "Ġdecrease": 7817,
      "Att": 7818,
      "Dec": 7819,
      "hs": 7820,
      "Ġmask": 7821,
      "Ġcollected": 7822,
      "Ġnearby": 7823,
      "Ġcompetition": 7824,
      "Ġaccepted": 7825,
      "ĠMedic": 7826,
      "ĠAbout": 7827,
      "ĠIsrael": 7828,
      "bel": 7829,
      "gent": 7830,
      "pu": 7831,
      "orous": 7832,
      "Ġusual": 7833,
      "Ġextended": 7834,
      "Ġstanding": 7835,
      "Ġmonthly": 7836,
      "Ġsuggested": 7837,
      "Ġappearance": 7838,
      "staticmethod": 7839,
      "Ġstyles": 7840,
      "BA": 7841,
      "true": 7842,
      "Ġmilk": 7843,
      "roc": 7844,
      "iler": 7845,
      "Ġdepos": 7846,
      "ĠMart": 7847,
      "__':": 7848,
      "Ġperimeter": 7849,
      "pute": 7850,
      "Ġequally": 7851,
      "Ġindigenous": 7852,
      "ĠProject": 7853,
      "ĠProfess": 7854,
      "Ġ2004": 7855,
      "Ġpossibly": 7856,
      "Ġpossibilities": 7857,
      "Ġbasically": 7858,
      "Ġemotion": 7859,
      "Ġexponential": 7860,
      "Path": 7861,
      "pdf": 7862,
      "Ðº": 7863,
      "ĠTem": 7864,
      "Ġstd": 7865,
      "Ġvocabulary": 7866,
      "appe": 7867,
      "ĠEmp": 7868,
      "Ġintroduction": 7869,
      "ĠJava": 7870,
      "Ġfeat": 7871,
      "Ġsheet": 7872,
      "ĠException": 7873,
      "Ġmaxim": 7874,
      "ĠÂ»": 7875,
      "rastructure": 7876,
      "ĠBasic": 7877,
      "BL": 7878,
      "SV": 7879,
      "langle": 7880,
      "nic": 7881,
      "å®": 7882,
      "Ġton": 7883,
      "rend": 7884,
      "Ġcof": 7885,
      "Ġocean": 7886,
      "Ġ38": 7887,
      "Ġ41": 7888,
      "ĠĠĠĠĠĠĠĠĠĠĠĠĠĠĠĠĠĠĠĠ": 7889,
      "Ġacting": 7890,
      "Ġmarketing": 7891,
      "Ġphoto": 7892,
      "Ġassessment": 7893,
      "digit": 7894,
      "Ġsimultaneously": 7895,
      "Id": 7896,
      "Ġpig": 7897,
      "Ġfro": 7898,
      "Ġfif": 7899,
      "Ġnn": 7900,
      "Ġuns": 7901,
      "ĠĠĠĠĠĠĠĠĠĠĠĠĠĠĠĠĠĠĠĠĠĠĠĠĠĠĠĠ": 7902,
      "Ġdesigns": 7903,
      "ĠSpanish": 7904,
      "Ġauthent": 7905,
      "ESS": 7906,
      "enny": 7907,
      "Ġauthority": 7908,
      "layers": 7909,
      "Ġriver": 7910,
      "aturally": 7911,
      "~~~~": 7912,
      "ĠMuslim": 7913,
      "Ġcircles": 7914,
      "execute": 7915,
      "ÂĿ": 7916,
      "Ġtmp": 7917,
      "isters": 7918,
      "Ġmm": 7919,
      "omorph": 7920,
      "Ġstone": 7921,
      "ushed": 7922,
      "ĠFull": 7923,
      "ĠRight": 7924,
      "bert": 7925,
      "Ġinterface": 7926,
      "Ġkeeps": 7927,
      "FT": 7928,
      "arith": 7929,
      "ican": 7930,
      "ented": 7931,
      "Ġ:=": 7932,
      "tenance": 7933,
      "Ġguaran": 7934,
      "Ġfinish": 7935,
      "ĠSuper": 7936,
      "Ġsuffering": 7937,
      "ĠDevelopment": 7938,
      "Ġenthus": 7939,
      "Oh": 7940,
      "onent": 7941,
      "Ġconven": 7942,
      "Ġprem": 7943,
      "Ġinstruction": 7944,
      "Ġbrings": 7945,
      "Ġepis": 7946,
      "Ġsusp": 7947,
      "ĠFunctions": 7948,
      "Ġneighborhood": 7949,
      "#!/": 7950,
      "Det": 7951,
      "late": 7952,
      "Äģ": 7953,
      "Ġpool": 7954,
      "Ġdot": 7955,
      "Ġrely": 7956,
      "ĠDan": 7957,
      "ĠEX": 7958,
      "Ġbuck": 7959,
      "Thus": 7960,
      "Ġtechnological": 7961,
      "Ġtelling": 7962,
      "Ġaccounts": 7963,
      "Ġmoral": 7964,
      "ĠDespite": 7965,
      "ĠSarah": 7966,
      "OG": 7967,
      "SA": 7968,
      "cut": 7969,
      "ilib": 7970,
      "Ġvess": 7971,
      "Ġvac": 7972,
      "ĠMal": 7973,
      "ĠLouis": 7974,
      "asts": 7975,
      "Ġagreed": 7976,
      "Ġsolved": 7977,
      "Ġrecurs": 7978,
      "Ġflight": 7979,
      "player": 7980,
      "Also": 7981,
      "Ġcapture": 7982,
      "Ġsocietal": 7983,
      "Ġintricate": 7984,
      "Big": 7985,
      "Ġalike": 7986,
      "rium": 7987,
      "estyle": 7988,
      "empty": 7989,
      "ĠHuman": 7990,
      "Ġresolution": 7991,
      "Ġlists": 7992,
      "Ġboost": 7993,
      "Ġindicate": 7994,
      "Check": 7995,
      "bas": 7996,
      "mode": 7997,
      "Ġped": 7998,
      "Ġble": 7999,
      "Ġ',": 8000,
      "ifications": 8001,
      "ĠProcess": 8002,
      "Ġdirector": 8003,
      "Ġgrown": 8004,
      "Ġsquared": 8005,
      "Ġera": 8006,
      "Ġdiscussing": 8007,
      "Ġstatistical": 8008,
      "Ġindustrial": 8009,
      "Lesson": 8010,
      "distance": 8011,
      "td": 8012,
      "tw": 8013,
      "Ġdil": 8014,
      "ĠPeter": 8015,
      "ĠMethod": 8016,
      "ĠBra": 8017,
      "Ġsett": 8018,
      "Ġzip": 8019,
      "Ġoperator": 8020,
      "Ġfewer": 8021,
      "Ġreduction": 8022,
      "Ġvehicle": 8023,
      "Ġpandas": 8024,
      "BN": 8025,
      "CD": 8026,
      "Wor": 8027,
      "found": 8028,
      "acific": 8029,
      "fections": 8030,
      "asty": 8031,
      "Ġattached": 8032,
      "Ġsupports": 8033,
      "oku": 8034,
      "Ġyounger": 8035,
      "Ġevaluation": 8036,
      "ĠModern": 8037,
      "Result": 8038,
      "elihood": 8039,
      "ponse": 8040,
      "req": 8041,
      "Ġsick": 8042,
      "Ġcab": 8043,
      "Ġinvalid": 8044,
      "Ġinfection": 8045,
      "oma": 8046,
      "ĠTimes": 8047,
      "ĠIr": 8048,
      "Ġrhy": 8049,
      "Ġteen": 8050,
      "Ġexplicit": 8051,
      "arser": 8052,
      "ync": 8053,
      "Ġfocusing": 8054,
      "Ġexcited": 8055,
      "Ġsentences": 8056,
      "response": 8057,
      "Which": 8058,
      "Ġagreement": 8059,
      ")[": 8060,
      "pie": 8061,
      "Ġbird": 8062,
      "Ġmir": 8063,
      "rox": 8064,
      "ĠĠĠĠĠĠĠĠčĊ": 8065,
      "ĠWall": 8066,
      "ĠDE": 8067,
      "exas": 8068,
      "Ġformulas": 8069,
      "Ġinsight": 8070,
      "ĠText": 8071,
      "Ġimmune": 8072,
      "gypt": 8073,
      "Ġcubic": 8074,
      "Ġoxygen": 8075,
      "Ġmood": 8076,
      "rape": 8077,
      "ested": 8078,
      "ĠDid": 8079,
      "agers": 8080,
      "Ġadds": 8081,
      "Ġmanif": 8082,
      "Ġpreferences": 8083,
      "full": 8084,
      "share": 8085,
      "Ġtechnical": 8086,
      "ucket": 8087,
      "ĠDefinition": 8088,
      "Ġemerging": 8089,
      "VI": 8090,
      "eness": 8091,
      "Ġcart": 8092,
      "ĠCath": 8093,
      "ĠHall": 8094,
      "Ġenables": 8095,
      "Ġshell": 8096,
      "Ġartistic": 8097,
      "ĠQue": 8098,
      "Ġcyl": 8099,
      "Ġaffects": 8100,
      "content": 8101,
      "Ġunexpected": 8102,
      "101": 8103,
      "Med": 8104,
      "Ġ),": 8105,
      "Ġtun": 8106,
      "Ġtap": 8107,
      "Ġsen": 8108,
      "ĠPsych": 8109,
      "ĠMiss": 8110,
      "roud": 8111,
      "ologists": 8112,
      "Ġexpensive": 8113,
      "Ġsignals": 8114,
      "Ġmetric": 8115,
      "Ġconsideration": 8116,
      "Ġexpectations": 8117,
      "Ġintroduce": 8118,
      "Ġethical": 8119,
      "Call": 8120,
      "ien": 8121,
      "nel": 8122,
      "uid": 8123,
      "Ġwarn": 8124,
      "ishes": 8125,
      "ĠCall": 8126,
      "ĠBase": 8127,
      "ĠDou": 8128,
      "Ġatoms": 8129,
      "Ġ37": 8130,
      "Ġplenty": 8131,
      "Ġlearners": 8132,
      "Ġflav": 8133,
      "Ġcommunic": 8134,
      "Ġidentities": 8135,
      "Ġopened": 8136,
      "Ġmarkets": 8137,
      "Ġtotally": 8138,
      "Ġlengths": 8139,
      "Length": 8140,
      "å°": 8141,
      "ione": 8142,
      "ĠIP": 8143,
      "ĠSing": 8144,
      "Ġ99": 8145,
      "Ġmemories": 8146,
      "Image": 8147,
      "Ġregularly": 8148,
      "Ġanalyzing": 8149,
      "ĠSystems": 8150,
      ")=\\": 8151,
      "CA": 8152,
      "Ġsan": 8153,
      "leq": 8154,
      "Ġhurt": 8155,
      "Ġforth": 8156,
      "ĠArab": 8157,
      "teen": 8158,
      "ĠEnd": 8159,
      "ipedia": 8160,
      "Ġ65": 8161,
      "Ġelectron": 8162,
      "Ġencoun": 8163,
      "Ġmarriage": 8164,
      "}^{\\": 8165,
      "ĠDifferent": 8166,
      "Don": 8167,
      "Ġfashion": 8168,
      "ĠSat": 8169,
      "ĠPop": 8170,
      "unte": 8171,
      "Ġarms": 8172,
      "Ġcombat": 8173,
      "ĠBritain": 8174,
      "Ġrapidly": 8175,
      "Ġcorrelation": 8176,
      "ĠSociety": 8177,
      "Where": 8178,
      "ĠCase": 8179,
      "Ġhence": 8180,
      "ĠYet": 8181,
      "Ġfolks": 8182,
      "ĠSelect": 8183,
      "Ġdelay": 8184,
      "Ġinputs": 8185,
      "ĠBefore": 8186,
      "Ġfunds": 8187,
      "Ġfighting": 8188,
      "ĠGrade": 8189,
      "Ġhouses": 8190,
      "depth": 8191,
      "move": 8192,
      "sent": 8193,
      "war": 8194,
      "ĠTH": 8195,
      "ĠMor": 8196,
      "Ġintent": 8197,
      "cules": 8198,
      "adding": 8199,
      "Ġmeasurements": 8200,
      "ACK": 8201,
      "Ġbehaviors": 8202,
      "status": 8203,
      "ĠFoundation": 8204,
      "Ġconventional": 8205,
      "aun": 8206,
      "press": 8207,
      "ĠĠĊ": 8208,
      "hero": 8209,
      "Ġsizes": 8210,
      "Ġtheories": 8211,
      "Ġinfect": 8212,
      "erson": 8213,
      "Ġvot": 8214,
      "Ġarts": 8215,
      "Ġmanaging": 8216,
      "Ġthereby": 8217,
      "Ġregulations": 8218,
      "Ġowner": 8219,
      "Ġcarried": 8220,
      "Ġcalculating": 8221,
      "Ġimprovement": 8222,
      "ĠArea": 8223,
      "Ġmerely": 8224,
      "Ġpregnancy": 8225,
      "EY": 8226,
      "Ġpin": 8227,
      "Ġinherent": 8228,
      "eles": 8229,
      "Ġstores": 8230,
      "Ġproceed": 8231,
      "ĠFore": 8232,
      "Ġ'\\": 8233,
      "Ġdish": 8234,
      "Ġspending": 8235,
      "Ġheritage": 8236,
      "Ġremote": 8237,
      "riculum": 8238,
      "Ġended": 8239,
      "Ġcentre": 8240,
      "Ġannual": 8241,
      "CP": 8242,
      "QU": 8243,
      "Ġastron": 8244,
      "Ġdefe": 8245,
      "ĠLong": 8246,
      "Ġjo": 8247,
      "Ġdistingu": 8248,
      "Through": 8249,
      "Ġoccurred": 8250,
      "Ġancest": 8251,
      "Ġleadership": 8252,
      "Ġjudge": 8253,
      "ĠStatistics": 8254,
      "circ": 8255,
      "Ġtight": 8256,
      "Ġimplications": 8257,
      "Ġartificial": 8258,
      "Ġidentical": 8259,
      "Ġperfectly": 8260,
      "connect": 8261,
      "Ġdependent": 8262,
      "Ġinterpretation": 8263,
      "png": 8264,
      "ĠčĊ": 8265,
      "reens": 8266,
      "Ġbeat": 8267,
      "Ġstatic": 8268,
      "Ġclients": 8269,
      "except": 8270,
      "'].": 8271,
      "results": 8272,
      "Ġdetailed": 8273,
      "->": 8274,
      "_{\\": 8275,
      "rations": 8276,
      "Ġfan": 8277,
      "Ġabstract": 8278,
      "Ġflag": 8279,
      "Ġclassic": 8280,
      "Ġparallelogram": 8281,
      "Ġinspiration": 8282,
      "Ġrid": 8283,
      "ĠRad": 8284,
      "ĠEgypt": 8285,
      "client": 8286,
      "cons": 8287,
      "Ġanywhere": 8288,
      "ĠProbability": 8289,
      "Ġobjective": 8290,
      "Ġbiggest": 8291,
      "Ġsatell": 8292,
      "Ġfunding": 8293,
      "Ġpsychological": 8294,
      "Index": 8295,
      "Ġwisdom": 8296,
      "Ġwitness": 8297,
      "Cre": 8298,
      "ba": 8299,
      "Ġfle": 8300,
      "Ġfib": 8301,
      "Ġrender": 8302,
      "Ġlens": 8303,
      "ĠSer": 8304,
      "ĠMer": 8305,
      "ibl": 8306,
      "Ġlocations": 8307,
      "Ġdepression": 8308,
      "Ġarrived": 8309,
      "Ġadvantages": 8310,
      "Ġperpendicular": 8311,
      "'(": 8312,
      "Ġbrown": 8313,
      "Ġlic": 8314,
      "Ġparse": 8315,
      "Ġsurgery": 8316,
      "Ġhomework": 8317,
      "Ġhabits": 8318,
      "Ġcryst": 8319,
      "``````": 8320,
      "Ġconducted": 8321,
      "ĠCourt": 8322,
      "ilibrium": 8323,
      "Ġstret": 8324,
      "ĠSpring": 8325,
      "Ġmatplotlib": 8326,
      "Ġdiscovery": 8327,
      "lessly": 8328,
      "Ġperforming": 8329,
      "Ġlegs": 8330,
      "Figure": 8331,
      "XX": 8332,
      "Ð²": 8333,
      "ighter": 8334,
      "ĠBen": 8335,
      "Ġ\"\"": 8336,
      "Ġjoy": 8337,
      "ĠThose": 8338,
      "Exception": 8339,
      "Ġmuscle": 8340,
      "inputs": 8341,
      "Ġcycl": 8342,
      "Ġtissue": 8343,
      "Ġsubstantial": 8344,
      ")}{": 8345,
      "Dis": 8346,
      "Ġtro": 8347,
      "Ġbread": 8348,
      "ĠTer": 8349,
      "uls": 8350,
      "00000": 8351,
      "Ġchannels": 8352,
      "ĠKnow": 8353,
      "ĠRef": 8354,
      "Ġrecognition": 8355,
      "remove": 8356,
      "Ġconstraints": 8357,
      "\\,": 8358,
      "]\",": 8359,
      "chen": 8360,
      "itudes": 8361,
      "ĠLin": 8362,
      "epoch": 8363,
      "rames": 8364,
      "Ġposit": 8365,
      "Ġassistance": 8366,
      "Ġessentially": 8367,
      "rimination": 8368,
      "åº": 8369,
      "Ġfav": 8370,
      "Ġ=>": 8371,
      "uler": 8372,
      "ĠCy": 8373,
      "Ġsubset": 8374,
      "hips": 8375,
      "aturday": 8376,
      "åŃ¦": 8377,
      "Ġremarkable": 8378,
      "night": 8379,
      "such": 8380,
      "uy": 8381,
      "uity": 8382,
      "ÃĤ": 8383,
      "Ġcul": 8384,
      "itt": 8385,
      "Ġalive": 8386,
      "Ġadap": 8387,
      "``,": 8388,
      "ART": 8389,
      "Ġcontributions": 8390,
      "Ġnutrition": 8391,
      "OK": 8392,
      "mid": 8393,
      "po": 8394,
      "è¿": 8395,
      "Ġtank": 8396,
      "itis": 8397,
      "Ġeast": 8398,
      "ĠMA": 8399,
      "ĠHand": 8400,
      "ĠInvest": 8401,
      "Ġinstances": 8402,
      "Ġdifferential": 8403,
      "Ġfunc": 8404,
      "Ġsimplify": 8405,
      "Red": 8406,
      "Write": 8407,
      "bor": 8408,
      "gence": 8409,
      "imental": 8410,
      "ĠTexas": 8411,
      "ĠIII": 8412,
      "ading": 8413,
      "Ġorient": 8414,
      "Ġhealing": 8415,
      "ĠWH": 8416,
      "Ġintellect": 8417,
      "Ġquiet": 8418,
      "Ġupdated": 8419,
      "Ġextent": 8420,
      "forward": 8421,
      "lik": 8422,
      "Ġsensitive": 8423,
      "Ġencourages": 8424,
      "holders": 8425,
      "Ġdialogue": 8426,
      "Ne": 8427,
      "Ġcups": 8428,
      "ittle": 8429,
      "Ġpip": 8430,
      "Ġbeings": 8431,
      "ĠCB": 8432,
      "ĠBack": 8433,
      "Ġrub": 8434,
      "ĠFil": 8435,
      "ĠEst": 8436,
      "Ġevil": 8437,
      "Ġcalling": 8438,
      "Ġmusical": 8439,
      "Ġfocuses": 8440,
      "Ġexception": 8441,
      "Ġconsumer": 8442,
      "Ġordinary": 8443,
      "aussian": 8444,
      "Ġhusband": 8445,
      "]+": 8446,
      "lers": 8447,
      "Ġbear": 8448,
      "ĠSal": 8449,
      "Ġindices": 8450,
      "Ġmatrices": 8451,
      "Ġflour": 8452,
      "Ġhandling": 8453,
      "ä¸ª": 8454,
      "ĠRobert": 8455,
      "RI": 8456,
      "di": 8457,
      "etary": 8458,
      "Ġconcrete": 8459,
      "ndarray": 8460,
      "ĠFile": 8461,
      "Ġ04": 8462,
      "ĠYOU": 8463,
      "Ġamb": 8464,
      "Ġmatches": 8465,
      "Ġlisted": 8466,
      "Ġsmallest": 8467,
      "Ġchoosing": 8468,
      "Ġpolynomials": 8469,
      "ĠService": 8470,
      "Ġreplaced": 8471,
      "Ġcrops": 8472,
      "600": 8473,
      "]*": 8474,
      "^\\": 8475,
      "high": 8476,
      "hidden": 8477,
      "åĴ": 8478,
      "idents": 8479,
      "estamp": 8480,
      "acher": 8481,
      "ĠRob": 8482,
      "Ġkin": 8483,
      "ĠGold": 8484,
      "oolean": 8485,
      "Ġarithmetic": 8486,
      "ĠYear": 8487,
      "numpy": 8488,
      "module": 8489,
      "Ġtreatments": 8490,
      "Ġdemands": 8491,
      "Ġimpacts": 8492,
      "Ġautomatically": 8493,
      "Ġsurvive": 8494,
      "Ġcandidates": 8495,
      "DA": 8496,
      "Ġcube": 8497,
      "isher": 8498,
      "Ġtoler": 8499,
      "channels": 8500,
      "Ġstead": 8501,
      "Ġneut": 8502,
      "ĠRom": 8503,
      "ĠOld": 8504,
      "example": 8505,
      "Ġcheese": 8506,
      "Ġrealm": 8507,
      "Ġrecorded": 8508,
      "Ġsaved": 8509,
      "pus": 8510,
      "tx": 8511,
      "Ġcust": 8512,
      "Ġpil": 8513,
      "Ġ34": 8514,
      "Ġmeal": 8515,
      "Ġreson": 8516,
      "Ġsomewhere": 8517,
      "comfort": 8518,
      "Ġbuff": 8519,
      "ĠExam": 8520,
      "ĠProv": 8521,
      "Ġcourses": 8522,
      "Ġpole": 8523,
      "Ġinfrastructure": 8524,
      "Ġsuppose": 8525,
      "00000000": 8526,
      "steps": 8527,
      "request": 8528,
      "Ġracial": 8529,
      "According": 8530,
      "Two": 8531,
      "lon": 8532,
      "si": 8533,
      "Ġcognitive": 8534,
      "Ġpra": 8535,
      "ĠTreat": 8536,
      "ĠTogether": 8537,
      "ĠAccess": 8538,
      "Ġcong": 8539,
      "Ġweigh": 8540,
      "ĠFOR": 8541,
      "Ġsport": 8542,
      "uals": 8543,
      "ĠWhite": 8544,
      "Ġ180": 8545,
      "Ġnegot": 8546,
      "Ġremained": 8547,
      "Array": 8548,
      "Ġclinical": 8549,
      "åĴĮ": 8550,
      "categ": 8551,
      "vas": 8552,
      "Ġmine": 8553,
      "Ġnu": 8554,
      "ĠSE": 8555,
      "ĠCode": 8556,
      "illion": 8557,
      "ocument": 8558,
      "ĠGame": 8559,
      "Ġrecall": 8560,
      "Ġshouldn": 8561,
      "Ġdifferently": 8562,
      "Ġpassage": 8563,
      "Ġmonitoring": 8564,
      "Ġessays": 8565,
      "Ġcrime": 8566,
      "Ġenhancing": 8567,
      "Ġassigned": 8568,
      "Ġcandidate": 8569,
      "ïĤĹ": 8570,
      "Americ": 8571,
      "Every": 8572,
      "Pre": 8573,
      "calcul": 8574,
      "Ġvideos": 8575,
      "Ġspr": 8576,
      "exit": 8577,
      "Ġformation": 8578,
      "Ġparagraph": 8579,
      "sche": 8580,
      "Ġdepict": 8581,
      "Ġwondered": 8582,
      "Ġabsolutely": 8583,
      "GE": 8584,
      "aver": 8585,
      "Ġtan": 8586,
      "Ġreaches": 8587,
      "Ġdispar": 8588,
      "Ġequality": 8589,
      "Ġmedian": 8590,
      "Ġnumerical": 8591,
      "ĠSuppose": 8592,
      "Ġsoul": 8593,
      ".')": 8594,
      "^(": 8595,
      "æĺ": 8596,
      "ĩĴ": 8597,
      "Ġnine": 8598,
      "Ġnarrow": 8599,
      "Ġgrew": 8600,
      "pload": 8601,
      "ĠGl": 8602,
      "Ġjoined": 8603,
      "rule": 8604,
      "``//": 8605,
      "there": 8606,
      "Ġserving": 8607,
      "ĠÂ°": 8608,
      "Ġprediction": 8609,
      "ĠEnvironment": 8610,
      "secutive": 8611,
      "Ġinjury": 8612,
      "Ġsocieties": 8613,
      "Ġinitiatives": 8614,
      "cases": 8615,
      "rho": 8616,
      "Ġsess": 8617,
      "Ġanch": 8618,
      "ĠWord": 8619,
      "improve": 8620,
      "phabet": 8621,
      "Ġages": 8622,
      "Ġcoins": 8623,
      "Ġmeasuring": 8624,
      "Ġprofound": 8625,
      "Ġportion": 8626,
      "ĠPosted": 8627,
      "ĠThomas": 8628,
      "Mar": 8629,
      "tmp": 8630,
      "ïģ": 8631,
      "Ġtack": 8632,
      "Ġlights": 8633,
      "Ġchronic": 8634,
      "inding": 8635,
      "Ġintrig": 8636,
      "Ġfunctional": 8637,
      "Ġpossibility": 8638,
      "ĠOnline": 8639,
      "cerning": 8640,
      "Ġreasoning": 8641,
      "Ġinfluences": 8642,
      "Ġpredicted": 8643,
      "Ġpackage": 8644,
      "Ġadministration": 8645,
      "Ġinstrument": 8646,
      "Ġvibrant": 8647,
      "Ġsauce": 8648,
      "Over": 8649,
      "tol": 8650,
      "Ġbonds": 8651,
      "quest": 8652,
      "ĠFour": 8653,
      "ĠDire": 8654,
      "Ġadm": 8655,
      "Ġdispl": 8656,
      "Ġintervention": 8657,
      "Ġprinted": 8658,
      "archy": 8659,
      "Ġgrass": 8660,
      "Ġmenu": 8661,
      "Ġnumerator": 8662,
      "Ġdebt": 8663,
      "Ġidx": 8664,
      "${\\": 8665,
      "SD": 8666,
      "]['": 8667,
      "wd": 8668,
      "ĠBer": 8669,
      "Ġsuc": 8670,
      "Ġshoes": 8671,
      "izoph": 8672,
      "Ġclothes": 8673,
      "Ġprison": 8674,
      "Ġmyster": 8675,
      "Ġrelief": 8676,
      "ĠProblems": 8677,
      "Ġmultiplying": 8678,
      "Ġcapabilities": 8679,
      "Ġproteins": 8680,
      "Ġpaint": 8681,
      "OUN": 8682,
      "Ġacceler": 8683,
      "Ġassignment": 8684,
      "Ġsurprise": 8685,
      ")^{": 8686,
      "fetch": 8687,
      "Ġlosing": 8688,
      "Ġexit": 8689,
      "endar": 8690,
      "ĠBusiness": 8691,
      "unning": 8692,
      "Ġchord": 8693,
      "Ġnoted": 8694,
      "Ġstrange": 8695,
      "cols": 8696,
      "Ġ%%": 8697,
      "Ġrecognized": 8698,
      "Ġreveal": 8699,
      "}+\\": 8700,
      "Ġsavings": 8701,
      "ĠGovernment": 8702,
      "ker": 8703,
      "utf": 8704,
      "ulf": 8705,
      "Ġvar": 8706,
      "Ġseat": 8707,
      "Ġstudied": 8708,
      "Ġherself": 8709,
      "Ġlayout": 8710,
      "Although": 8711,
      "Ġconstantly": 8712,
      "Ġimmig": 8713,
      "Ġparticipate": 8714,
      "Ġmechanisms": 8715,
      "Ġminimize": 8716,
      "izophren": 8717,
      "MP": 8718,
      "aa": 8719,
      "bmatrix": 8720,
      "zen": 8721,
      "Ġwest": 8722,
      "Ġpit": 8723,
      "ĠBag": 8724,
      "operation": 8725,
      "Ġarc": 8726,
      "ordinary": 8727,
      "Ġtea": 8728,
      "swith": 8729,
      "Ġcounting": 8730,
      "Ġ150": 8731,
      "Ġrestaur": 8732,
      "contin": 8733,
      "compass": 8734,
      "Ġpushing": 8735,
      "BR": 8736,
      "Ġtor": 8737,
      "Ġbags": 8738,
      "ila": 8739,
      "ĠCON": 8740,
      "Ġalter": 8741,
      "ĠPage": 8742,
      "pts": 8743,
      "Ġquarter": 8744,
      "exists": 8745,
      "Ġblank": 8746,
      "Ġexplo": 8747,
      "ĠShare": 8748,
      "brace": 8749,
      "Ġminds": 8750,
      "ITY": 8751,
      "Ġcomplain": 8752,
      "Ġathlet": 8753,
      "Handler": 8754,
      "screen": 8755,
      "ucl": 8756,
      "ĠĠĠĠčĊ": 8757,
      "Ġml": 8758,
      "Ġ101": 8759,
      "ĠCr": 8760,
      "Ġassemb": 8761,
      "anda": 8762,
      "Ġchicken": 8763,
      "Ġ-=": 8764,
      "Ġassets": 8765,
      "Ġcircular": 8766,
      "ĠColor": 8767,
      "ĠParis": 8768,
      "Ġcommitment": 8769,
      "IGHT": 8770,
      "Ġvehicles": 8771,
      "PU": 8772,
      "ders": 8773,
      "some": 8774,
      "Î²": 8775,
      "atial": 8776,
      "Ġinclusive": 8777,
      "adder": 8778,
      "osh": 8779,
      "ocking": 8780,
      "Ġ55": 8781,
      "Ġspan": 8782,
      "Ġmyth": 8783,
      "ĠItalian": 8784,
      "Ġproducing": 8785,
      "ĠAtl": 8786,
      "options": 8787,
      "Ġdividing": 8788,
      "Ġconsumers": 8789,
      "Ġparticipants": 8790,
      "ĠBoard": 8791,
      "Ġeliminate": 8792,
      "ĠStrateg": 8793,
      "_\\": 8794,
      "Ð»": 8795,
      "åĩ": 8796,
      "ordered": 8797,
      "alink": 8798,
      "edy": 8799,
      "ĠTur": 8800,
      "quality": 8801,
      "Ġleaf": 8802,
      "Ġmeals": 8803,
      "Ġunw": 8804,
      "ĠInformation": 8805,
      "Ġemissions": 8806,
      "Ġsubsc": 8807,
      "Ġcounts": 8808,
      "Ġlogical": 8809,
      "Ġoccasion": 8810,
      "ÂłÂłÂłÂłÂłÂłÂłÂłÂłÂłÂł": 8811,
      "Ġstopped": 8812,
      "ĠSolutions": 8813,
      "Ġinvestigation": 8814,
      "Ġpoetry": 8815,
      "Ġcoffee": 8816,
      "Base": 8817,
      "Dict": 8818,
      "iology": 8819,
      "mem": 8820,
      "Ġwet": 8821,
      "stud": 8822,
      "ĠLanguage": 8823,
      "Ġ43": 8824,
      "Ġloan": 8825,
      "Ġcombinations": 8826,
      "ĠFranc": 8827,
      "Ġemerged": 8828,
      "Ġconnecting": 8829,
      "Ġsuddenly": 8830,
      "Max": 8831,
      "Ġtheta": 8832,
      "Ġcas": 8833,
      "Ġcoc": 8834,
      "Ġblow": 8835,
      "ching": 8836,
      "Ġorb": 8837,
      "ĠPort": 8838,
      "ĠPass": 8839,
      "eller": 8840,
      "Ġexposed": 8841,
      "cycl": 8842,
      "Ġelection": 8843,
      "Ġheads": 8844,
      "rolling": 8845,
      "Ġgeometric": 8846,
      "Ġassumed": 8847,
      "ãĢģ": 8848,
      "Ġfruits": 8849,
      "Ġreject": 8850,
      "ulous": 8851,
      "Ġrank": 8852,
      "apse": 8853,
      "ĠFollow": 8854,
      "ĠHen": 8855,
      "ĠHyp": 8856,
      "Ġneural": 8857,
      "area": 8858,
      "ĠStar": 8859,
      "Ġ1990": 8860,
      "shap": 8861,
      "Ġexamination": 8862,
      "ĠChristmas": 8863,
      "Ġliterary": 8864,
      "QL": 8865,
      "fg": 8866,
      "ugh": 8867,
      "whel": 8868,
      "{(": 8869,
      "Ġnaturally": 8870,
      "Ġreactions": 8871,
      "ota": 8872,
      "ĠCoun": 8873,
      "ĠJer": 8874,
      "Ġmini": 8875,
      "Ġbias": 8876,
      "Ġcontained": 8877,
      "Ġtwenty": 8878,
      "Ġcopyright": 8879,
      "Ġdiagonal": 8880,
      "Ġheavily": 8881,
      "Ġproportional": 8882,
      "Ġattributes": 8883,
      "Ġobviously": 8884,
      "Ġnervous": 8885,
      "Sp": 8886,
      "je": 8887,
      "pg": 8888,
      "src": 8889,
      "Ġdaughter": 8890,
      "Ġtom": 8891,
      "ayer": 8892,
      "Ġsharp": 8893,
      "ipher": 8894,
      "hesis": 8895,
      "Ġexpansion": 8896,
      "Ġexperiments": 8897,
      "Ġreduces": 8898,
      "Ġrandomly": 8899,
      "Ġcontexts": 8900,
      "Ġdrinking": 8901,
      "local": 8902,
      "Ġparticipation": 8903,
      "Ġcaptiv": 8904,
      "Ġconversations": 8905,
      "Ġcomprehensive": 8906,
      "OB": 8907,
      "gt": 8908,
      "two": 8909,
      "yes": 8910,
      "Ġcrow": 8911,
      "Ġdance": 8912,
      "ĠBible": 8913,
      "Ġchocol": 8914,
      "Ġadequ": 8915,
      "Ġarrays": 8916,
      "Ġimplies": 8917,
      "Ġpasses": 8918,
      "Ġprecise": 8919,
      "Ġattempts": 8920,
      "Ġintervals": 8921,
      "Ġfinger": 8922,
      "Ġenemy": 8923,
      "Ge": 8924,
      "ä¹": 8925,
      "æĪ": 8926,
      "eros": 8927,
      "Ġborder": 8928,
      "Ġmixture": 8929,
      "Ġnull": 8930,
      "imeters": 8931,
      "Ġwearing": 8932,
      "throp": 8933,
      "Ġrice": 8934,
      "Ġmanager": 8935,
      "Ġfinds": 8936,
      "ffective": 8937,
      "Ġmonitor": 8938,
      "ERS": 8939,
      "Ġutf": 8940,
      "Ġshaped": 8941,
      "Ġmolecules": 8942,
      "operator": 8943,
      "FL": 8944,
      "]{\\": 8945,
      "dri": 8946,
      "ano": 8947,
      "adian": 8948,
      "Ġdesire": 8949,
      "Ġsettle": 8950,
      "Ġrecovery": 8951,
      "iously": 8952,
      "Ġdistrict": 8953,
      "ships": 8954,
      "product": 8955,
      "Ġcenters": 8956,
      "Ġmuscles": 8957,
      "ĠâĨĴ": 8958,
      "ĠStudies": 8959,
      "Ġimplemented": 8960,
      "Ġprecision": 8961,
      "Ġroutine": 8962,
      "valuate": 8963,
      "ĠStandard": 8964,
      "ĠLatin": 8965,
      "ä»£åĨĻ": 8966,
      "Ġamidst": 8967,
      "?)": 8968,
      "TR": 8969,
      "when": 8970,
      "Ġtough": 8971,
      "Ġsight": 8972,
      "Ġproud": 8973,
      "eting": 8974,
      "Ġstake": 8975,
      "Ġunable": 8976,
      "uality": 8977,
      "ĠChange": 8978,
      "(\"\\": 8979,
      "Thank": 8980,
      "Ġminimal": 8981,
      "Ġmaintenance": 8982,
      "Ġbranch": 8983,
      "Ġmeter": 8984,
      "Ġmetab": 8985,
      "ĠNotes": 8986,
      "ĠApple": 8987,
      "Ġtaxes": 8988,
      "ĠAmong": 8989,
      "ĠFactor": 8990,
      "Ġcharged": 8991,
      "Ġphenomenon": 8992,
      "Google": 8993,
      "Ġfabric": 8994,
      "VD": 8995,
      "kin": 8996,
      "Ġbounds": 8997,
      "Ġdt": 8998,
      "ometer": 8999,
      "astern": 9000,
      "ĠIll": 9001,
      "ĠLiter": 9002,
      "wered": 9003,
      "Ġpartner": 9004,
      "Ġmyst": 9005,
      "Ġagency": 9006,
      "Ġovercome": 9007,
      "Ġ68": 9008,
      "Ġproduces": 9009,
      "Ġfilms": 9010,
      "Ġengaged": 9011,
      "Ġhumanity": 9012,
      "ĠScient": 9013,
      "Ġreasonable": 9014,
      "Ġstrategic": 9015,
      "Ġrobot": 9016,
      "Ġrobust": 9017,
      "Ġcontrolled": 9018,
      "Co": 9019,
      "Vector": 9020,
      "bot": 9021,
      "oral": 9022,
      "Ġtox": 9023,
      "Ġgap": 9024,
      "Ġdeploy": 9025,
      "Ġ\".": 9026,
      "ĠFacebook": 9027,
      "Ġdefinitions": 9028,
      "conv": 9029,
      "125": 9030,
      "Ġpractition": 9031,
      "Ġtyping": 9032,
      "Ġpaying": 9033,
      "Ġimplementing": 9034,
      "Ġaudio": 9035,
      "Ġpermut": 9036,
      "Ġenabling": 9037,
      "NN": 9038,
      "Ġtab": 9039,
      "Ġimper": 9040,
      "contain": 9041,
      "Ġxy": 9042,
      "Ġtele": 9043,
      "Ġprimes": 9044,
      "bec": 9045,
      "Ġfourth": 9046,
      "uffle": 9047,
      "indows": 9048,
      "Ġembracing": 9049,
      "Ġbringing": 9050,
      "Ġpredictions": 9051,
      "Level": 9052,
      "Ġmistakes": 9053,
      "ĠDiscuss": 9054,
      "Dou": 9055,
      "Rep": 9056,
      "iest": 9057,
      "images": 9058,
      "Ġconcerning": 9059,
      "Ġ:)": 9060,
      "Ġdiscrimination": 9061,
      "Ġflavor": 9062,
      "Ġmainly": 9063,
      "Ġbreaking": 9064,
      "month": 9065,
      "ĠPlus": 9066,
      "aneous": 9067,
      "ĠGeometry": 9068,
      "Ġbuying": 9069,
      "Ġpuzzle": 9070,
      "ao": 9071,
      "}}{\\": 9072,
      "Ġretain": 9073,
      "child": 9074,
      "ĠCond": 9075,
      "rible": 9076,
      "ocy": 9077,
      "aval": 9078,
      "Ġhash": 9079,
      "Inst": 9080,
      "Ġdistances": 9081,
      "Ġaccessible": 9082,
      "blue": 9083,
      "sequent": 9084,
      "Ġextraordinary": 9085,
      "Ġdemonstrated": 9086,
      "Ġsurvival": 9087,
      "Ġuniversal": 9088,
      "ĠRevolution": 9089,
      "Ġcompassion": 9090,
      "sleep": 9091,
      "Ã³": 9092,
      "Ġ-------": 9093,
      "Ġtact": 9094,
      "Ġcaught": 9095,
      "Ġlatter": 9096,
      "Ġyouth": 9097,
      "ĠCle": 9098,
      "Ġunus": 9099,
      "ĠJud": 9100,
      "Ġanyway": 9101,
      "120": 9102,
      "ĠPlace": 9103,
      "Ġdriver": 9104,
      "Ġquantities": 9105,
      "ĠSupport": 9106,
      "****************": 9107,
      "ODE": 9108,
      "gage": 9109,
      "mo": 9110,
      "Ġpi": 9111,
      "Ġmaps": 9112,
      "Ġlaugh": 9113,
      "Ġgent": 9114,
      "istan": 9115,
      "ĠIns": 9116,
      "Ġrecy": 9117,
      "Ġgenerator": 9118,
      "Ġpracticing": 9119,
      "Ġconfused": 9120,
      "Ġvolunte": 9121,
      "Ġincorrect": 9122,
      "Ġinstitution": 9123,
      "Ġpreparation": 9124,
      "Ġcrisis": 9125,
      "jacent": 9126,
      "xis": 9127,
      "Ġaward": 9128,
      "Ġwine": 9129,
      "Ġreb": 9130,
      "Ġstre": 9131,
      "Ġstages": 9132,
      "ĠWik": 9133,
      "ĠLess": 9134,
      "------": 9135,
      "ĠInf": 9136,
      "ĠInitial": 9137,
      "Ġreliable": 9138,
      "Ġpresentation": 9139,
      "Ġachieved": 9140,
      "Ġscenarios": 9141,
      "Ġrecommended": 9142,
      "Ġattribute": 9143,
      "\").": 9144,
      "PC": 9145,
      "UD": 9146,
      "[(": 9147,
      "ki": 9148,
      "kl": 9149,
      "chain": 9150,
      "ema": 9151,
      "Ġlect": 9152,
      "avg": 9153,
      "Ġdisk": 9154,
      "Ġcomprom": 9155,
      "Ġspok": 9156,
      "('\\": 9157,
      "Ġpharm": 9158,
      "}$,": 9159,
      "']['": 9160,
      "loads": 9161,
      "Ġimmediate": 9162,
      "ĠCircle": 9163,
      "Ġpreserving": 9164,
      "ĠMicrosoft": 9165,
      "\"):": 9166,
      "Back": 9167,
      "Ġil": 9168,
      "Ġcher": 9169,
      "esome": 9170,
      "Ġfell": 9171,
      "lections": 9172,
      "ĠRiver": 9173,
      "Ġ39": 9174,
      "irement": 9175,
      "ĠStreet": 9176,
      "ĠUnfortunately": 9177,
      "Ġfriendly": 9178,
      "ĠPrint": 9179,
      "ĠSimilar": 9180,
      "ĠLearn": 9181,
      "ÂłÂłÂłÂłÂłÂłÂłÂłÂłÂłÂłÂłÂłÂłÂłÂłÂłÂłÂłÂłÂłÂłÂłÂłÂłÂłÂłÂłÂłÂłÂłÂł": 9182,
      "volume": 9183,
      "ĠJewish": 9184,
      "800": 9185,
      "Even": 9186,
      "EST": 9187,
      "Ġtomat": 9188,
      "ĠLibr": 9189,
      "Ġcovers": 9190,
      "ĠProduct": 9191,
      "Ġreflection": 9192,
      "Ġvisible": 9193,
      "Ġbeneficial": 9194,
      "ĠEnergy": 9195,
      "onald": 9196,
      "Ġidentifying": 9197,
      "Ġharmful": 9198,
      "Ġsmoking": 9199,
      "ĠIdentify": 9200,
      "arcissistic": 9201,
      "%,": 9202,
      "kg": 9203,
      "inn": 9204,
      "Ġcache": 9205,
      "ĠCrit": 9206,
      "iller": 9207,
      "ells": 9208,
      "Ġquote": 9209,
      "ĠĠĠĠĠĠĠĠĠĠĠĠĠĠĠĠĠĠĠĠĠ": 9210,
      "aws": 9211,
      "Ġexplains": 9212,
      "Ġexplored": 9213,
      "Ġsigned": 9214,
      "theless": 9215,
      "Ġcombine": 9216,
      "ODO": 9217,
      "Ġmistake": 9218,
      "ĠComplex": 9219,
      "Ġobserve": 9220,
      "ĠEngineering": 9221,
      "Ġuncertainty": 9222,
      "Because": 9223,
      "miss": 9224,
      "Ġsister": 9225,
      "itivity": 9226,
      "Ġfer": 9227,
      "oul": 9228,
      "rovers": 9229,
      "ĠIde": 9230,
      "Ġoral": 9231,
      "ĠFractions": 9232,
      "Ġsector": 9233,
      "Ġnotion": 9234,
[...]
